{
  "version": "1.0",
  "truncation": null,
  "padding": null,
  "added_tokens": [
    {
      "id": 0,
      "content": "[UNK]",
      "single_word": false,
      "lstrip": false,
      "rstrip": false,
      "normalized": false,
      "special": true
    },
    {
      "id": 1,
      "content": "[CLS]",
      "single_word": false,
      "lstrip": false,
      "rstrip": false,
      "normalized": false,
      "special": true
    },
    {
      "id": 2,
      "content": "[SEP]",
      "single_word": false,
      "lstrip": false,
      "rstrip": false,
      "normalized": false,
      "special": true
    },
    {
      "id": 3,
      "content": "[PAD]",
      "single_word": false,
      "lstrip": false,
      "rstrip": false,
      "normalized": false,
      "special": true
    },
    {
      "id": 4,
      "content": "[MASK]",
      "single_word": false,
      "lstrip": false,
      "rstrip": false,
      "normalized": false,
      "special": true
    }
  ],
  "normalizer": {
    "type": "Sequence",
    "normalizers": [
      {
        "type": "NFD"
      }
    ]
  },
  "pre_tokenizer": {
    "type": "Whitespace"
  },
  "post_processor": null,
  "decoder": null,
  "model": {
    "type": "BPE",
    "dropout": null,
    "unk_token": null,
    "continuing_subword_prefix": null,
    "end_of_word_suffix": null,
    "fuse_unk": false,
    "byte_fallback": false,
    "vocab": {
      "[UNK]": 0,
      "[CLS]": 1,
      "[SEP]": 2,
      "[PAD]": 3,
      "[MASK]": 4,
      "!": 5,
      "\"": 6,
      "#": 7,
      "$": 8,
      "%": 9,
      "&": 10,
      "'": 11,
      "(": 12,
      ")": 13,
      "*": 14,
      "+": 15,
      ",": 16,
      "-": 17,
      ".": 18,
      "/": 19,
      "0": 20,
      "1": 21,
      "2": 22,
      "3": 23,
      "4": 24,
      "5": 25,
      "6": 26,
      "7": 27,
      "8": 28,
      "9": 29,
      ":": 30,
      ";": 31,
      "<": 32,
      "=": 33,
      ">": 34,
      "?": 35,
      "@": 36,
      "A": 37,
      "B": 38,
      "C": 39,
      "D": 40,
      "E": 41,
      "F": 42,
      "G": 43,
      "H": 44,
      "I": 45,
      "J": 46,
      "K": 47,
      "L": 48,
      "M": 49,
      "N": 50,
      "O": 51,
      "P": 52,
      "Q": 53,
      "R": 54,
      "S": 55,
      "T": 56,
      "U": 57,
      "V": 58,
      "W": 59,
      "X": 60,
      "Y": 61,
      "Z": 62,
      "[": 63,
      "\\": 64,
      "]": 65,
      "_": 66,
      "`": 67,
      "a": 68,
      "b": 69,
      "c": 70,
      "d": 71,
      "e": 72,
      "f": 73,
      "g": 74,
      "h": 75,
      "i": 76,
      "j": 77,
      "k": 78,
      "l": 79,
      "m": 80,
      "n": 81,
      "o": 82,
      "p": 83,
      "q": 84,
      "r": 85,
      "s": 86,
      "t": 87,
      "u": 88,
      "v": 89,
      "w": 90,
      "x": 91,
      "y": 92,
      "z": 93,
      "{": 94,
      "|": 95,
      "}": 96,
      "~": 97,
      "¡": 98,
      "¦": 99,
      "©": 100,
      "­": 101,
      "°": 102,
      "´": 103,
      "·": 104,
      "º": 105,
      "æ": 106,
      "Œ": 107,
      "œ": 108,
      "̀": 109,
      "́": 110,
      "̂": 111,
      "̃": 112,
      "̄": 113,
      "̇": 114,
      "̈": 115,
      "̊": 116,
      "̌": 117,
      "̧": 118,
      "ι": 119,
      "ο": 120,
      "Ҫ": 121,
      "​": 122,
      "‎": 123,
      "‐": 124,
      "–": 125,
      "—": 126,
      "‘": 127,
      "’": 128,
      "“": 129,
      "”": 130,
      "•": 131,
      "…": 132,
      "€": 133,
      "→": 134,
      "−": 135,
      "✔": 136,
      "﻿": 137,
      "de": 138,
      "en": 139,
      "on": 140,
      "ta": 141,
      "la": 142,
      "ra": 143,
      "qu": 144,
      "è": 145,
      "es": 146,
      "ci": 147,
      "as": 148,
      "er": 149,
      "ar": 150,
      "an": 151,
      "au": 152,
      "or": 153,
      "re": 154,
      "ò": 155,
      "di": 156,
      "que": 157,
      "ti": 158,
      "lo": 159,
      "at": 160,
      "ri": 161,
      "cion": 162,
      "in": 163,
      "da": 164,
      "un": 165,
      "us": 166,
      "is": 167,
      "ca": 168,
      "li": 169,
      "te": 170,
      "co": 171,
      "sa": 172,
      "ent": 173,
      "tan": 174,
      "las": 175,
      "ma": 176,
      "ei": 177,
      "le": 178,
      "èr": 179,
      "per": 180,
      "con": 181,
      "pr": 182,
      "ç": 183,
      "oc": 184,
      "se": 185,
      "to": 186,
      "ha": 187,
      "qui": 188,
      "si": 189,
      "citan": 190,
      "é": 191,
      "al": 192,
      "vi": 193,
      "deu": 194,
      "tu": 195,
      "occitan": 196,
      "Qu": 197,
      "os": 198,
      "ga": 199,
      "tra": 200,
      "ts": 201,
      "na": 202,
      "gu": 203,
      "me": 204,
      "mp": 205,
      "ia": 206,
      "ns": 207,
      "ment": 208,
      "20": 209,
      "res": 210,
      "..": 211,
      "tor": 212,
      "lh": 213,
      "son": 214,
      "ic": 215,
      "par": 216,
      "tà": 217,
      "ro": 218,
      "los": 219,
      "ran": 220,
      "ès": 221,
      "pas": 222,
      "aus": 223,
      "tat": 224,
      "so": 225,
      "rà": 226,
      "po": 227,
      "pe": 228,
      "èra": 229,
      "Lo": 230,
      "len": 231,
      "sab": 232,
      "ça": 233,
      "201": 234,
      "va": 235,
      "ua": 236,
      "ul": 237,
      "à": 238,
      "mei": 239,
      "gi": 240,
      "La": 241,
      "tas": 242,
      "mb": 243,
      "pa": 244,
      "mi": 245,
      "pro": 246,
      "ge": 247,
      "cions": 248,
      "das": 249,
      "man": 250,
      "des": 251,
      "cia": 252,
      "ch": 253,
      "́s": 254,
      "òr": 255,
      "tura": 256,
      "tz": 257,
      "Ò": 258,
      "lan": 259,
      "th": 260,
      "men": 261,
      "deus": 262,
      "lenga": 263,
      "ver": 264,
      "és": 265,
      "ub": 266,
      "ac": 267,
      "saber": 268,
      "dab": 269,
      "dicion": 270,
      "gan": 271,
      "Tà": 272,
      "ter": 273,
      "du": 274,
      "tau": 275,
      "Que": 276,
      "ica": 277,
      "pre": 278,
      "...": 279,
      "dis": 280,
      "ai": 281,
      "ve": 282,
      "can": 283,
      "Es": 284,
      "ons": 285,
      "tes": 286,
      "sus": 287,
      "gas": 288,
      "com": 289,
      "ens": 290,
      "ish": 291,
      "gra": 292,
      "ir": 293,
      "una": 294,
      "mes": 295,
      "pres": 296,
      "et": 297,
      "lin": 298,
      "aque": 299,
      "mo": 300,
      "tar": 301,
      "ultura": 302,
      "mus": 303,
      "tic": 304,
      "iz": 305,
      "ven": 306,
      "vo": 307,
      "no": 308,
      "do": 309,
      "ja": 310,
      "ab": 311,
      "um": 312,
      "mon": 313,
      "ni": 314,
      "del": 315,
      "ors": 316,
      "bal": 317,
      "ben": 318,
      "ur": 319,
      "ne": 320,
      "í": 321,
      "mas": 322,
      "ex": 323,
      "Con": 324,
      "vè": 325,
      "dè": 326,
      "tè": 327,
      "mai": 328,
      "́n": 329,
      "ari": 330,
      "comp": 331,
      "tol": 332,
      "ria": 333,
      "Au": 334,
      "ques": 335,
      "dins": 336,
      "tàn": 337,
      "ans": 338,
      "ats": 339,
      "èi": 340,
      "Òc": 341,
      "esc": 342,
      "for": 343,
      "tica": 344,
      "ras": 345,
      "rat": 346,
      "èrs": 347,
      "tània": 348,
      "ubli": 349,
      "occitana": 350,
      "dens": 351,
      "cultura": 352,
      "én": 353,
      "fi": 354,
      "tr": 355,
      "ce": 356,
      "ítol": 357,
      "Aqui": 358,
      "ba": 359,
      "min": 360,
      "Títol": 361,
      "har": 362,
      "tre": 363,
      "tò": 364,
      "lè": 365,
      "den": 366,
      "pau": 367,
      "ganiz": 368,
      "Co": 369,
      "Aquitània": 370,
      "cés": 371,
      "publi": 372,
      "ser": 373,
      "jor": 374,
      "ona": 375,
      "tot": 376,
      "liz": 377,
      "bo": 378,
      "edicion": 379,
      "tres": 380,
      "ob": 381,
      "vis": 382,
      "dre": 383,
      "sion": 384,
      "eu": 385,
      "su": 386,
      "lingu": 387,
      "fran": 388,
      "les": 389,
      "cò": 390,
      "cas": 391,
      "enta": 392,
      "acion": 393,
      "fa": 394,
      "mar": 395,
      "Ca": 396,
      "dan": 397,
      "car": 398,
      "ccion": 399,
      "tanben": 400,
      "Ar": 401,
      "gascon": 402,
      "mat": 403,
      "00": 404,
      "temp": 405,
      "En": 406,
      "col": 407,
      "nada": 408,
      "Re": 409,
      "èc": 410,
      "bi": 411,
      "parti": 412,
      "pò": 413,
      "pi": 414,
      "mò": 415,
      "esta": 416,
      "ins": 417,
      "tro": 418,
      "quò": 419,
      "ju": 420,
      "In": 421,
      "van": 422,
      "cre": 423,
      "ten": 424,
      "fer": 425,
      "rès": 426,
      "èt": 427,
      "Oc": 428,
      "cha": 429,
      "lu": 430,
      "dia": 431,
      "arn": 432,
      "tri": 433,
      "64": 434,
      "lingü": 435,
      "rec": 436,
      "òs": 437,
      "To": 438,
      "be": 439,
      "forma": 440,
      "Los": 441,
      "mis": 442,
      "don": 443,
      "rada": 444,
      "tats": 445,
      "gen": 446,
      "fin": 447,
      "19": 448,
      "Len": 449,
      "tradicion": 450,
      "De": 451,
      "atri": 452,
      "ges": 453,
      "lar": 454,
      "francés": 455,
      "socia": 456,
      "Un": 457,
      "val": 458,
      "Da": 459,
      "Per": 460,
      "plan": 461,
      "lor": 462,
      "tiu": 463,
      "espe": 464,
      "arr": 465,
      "inter": 466,
      "2018": 467,
      "tis": 468,
      "dau": 469,
      "segu": 470,
      "Edi": 471,
      "fon": 472,
      "lha": 473,
      "Quò": 474,
      "temps": 475,
      "Quan": 476,
      "òc": 477,
      "An": 478,
      "lec": 479,
      "Lenga": 480,
      "bas": 481,
      "Le": 482,
      "èu": 483,
      "cri": 484,
      "entà": 485,
      "ràn": 486,
      "bre": 487,
      "pu": 488,
      "Las": 489,
      "ada": 490,
      "aqueth": 491,
      "Jo": 492,
      "atge": 493,
      "Se": 494,
      "gion": 495,
      "éncia": 496,
      "çò": 497,
      "poli": 498,
      "ments": 499,
      "pon": 500,
      "sor": 501,
      "pode": 502,
      "On": 503,
      "grès": 504,
      "Pau": 505,
      "pausa": 506,
      "ani": 507,
      "he": 508,
      "ator": 509,
      "rau": 510,
      "Or": 511,
      "quau": 512,
      "far": 513,
      "Data": 514,
      ").": 515,
      "enre": 516,
      "Fran": 517,
      "musica": 518,
      "organiz": 519,
      "bar": 520,
      "pri": 521,
      "sabte": 522,
      "Occitan": 523,
      "edi": 524,
      "am": 525,
      "jèc": 526,
      "),": 527,
      "lingüis": 528,
      "2017": 529,
      "tin": 530,
      "rop": 531,
      "ue": 532,
      "ensen": 533,
      "jo": 534,
      "rar": 535,
      "ire": 536,
      "ut": 537,
      "conc": 538,
      "cap": 539,
      "ina": 540,
      "Congrès": 541,
      "còp": 542,
      "Aque": 543,
      "ant": 544,
      "avi": 545,
      "dar": 546,
      "im": 547,
      "din": 548,
      "gar": 549,
      "Be": 550,
      "jorn": 551,
      "fic": 552,
      "ires": 553,
      "non": 554,
      "associa": 555,
      "soa": 556,
      "cor": 557,
      "coma": 558,
      "balh": 559,
      "Mar": 560,
      "lat": 561,
      "Gas": 562,
      "amb": 563,
      "public": 564,
      "Editor": 565,
      "bra": 566,
      "ças": 567,
      "InÒc": 568,
      "cta": 569,
      "dus": 570,
      "sen": 571,
      "harà": 572,
      "tors": 573,
      "fici": 574,
      "As": 575,
      "á": 576,
      "2016": 577,
      "Na": 578,
      "Bi": 579,
      "tal": 580,
      "nar": 581,
      "pla": 582,
      "escri": 583,
      "cian": 584,
      "hè": 585,
      "ents": 586,
      "nos": 587,
      "atrimò": 588,
      "près": 589,
      "2019": 590,
      "versi": 591,
      "ton": 592,
      "ris": 593,
      "cau": 594,
      "èus": 595,
      "dissabte": 596,
      "rac": 597,
      "Vi": 598,
      "èsta": 599,
      "pen": 600,
      "icas": 601,
      "ensenha": 602,
      "Organiz": 603,
      "pass": 604,
      "iren": 605,
      "uti": 606,
      "ala": 607,
      "Genre": 608,
      "dels": 609,
      "emp": 610,
      "pren": 611,
      "10": 612,
      "Gascon": 613,
      "go": 614,
      "gon": 615,
      "lon": 616,
      "cias": 617,
      "Joan": 618,
      "Mon": 619,
      "Autor": 620,
      "comun": 621,
      "monde": 622,
      "paus": 623,
      "ren": 624,
      "presenta": 625,
      "Organizator": 626,
      "has": 627,
      "mos": 628,
      "serà": 629,
      "bu": 630,
      "esco": 631,
      "estau": 632,
      "Ro": 633,
      "èrt": 634,
      "suu": 635,
      "atrimòni": 636,
      "cla": 637,
      "bri": 638,
      "dor": 639,
      "Bor": 640,
      "Ma": 641,
      "vèra": 642,
      "ec": 643,
      "prepausa": 644,
      "aliz": 645,
      "fes": 646,
      "grop": 647,
      "il": 648,
      "it": 649,
      "tion": 650,
      "Car": 651,
      "tant": 652,
      "selh": 653,
      "el": 654,
      "ru": 655,
      "gran": 656,
      "titu": 657,
      "aquera": 658,
      "gis": 659,
      "racion": 660,
      "site": 661,
      "culturau": 662,
      "projèc": 663,
      "Piren": 664,
      "esca": 665,
      "ali": 666,
      "esto": 667,
      "dent": 668,
      "Li": 669,
      "sos": 670,
      "vat": 671,
      "ger": 672,
      "pè": 673,
      "cacion": 674,
      "entre": 675,
      "lengas": 676,
      "num": 677,
      "estu": 678,
      "partici": 679,
      "cat": 680,
      "mà": 681,
      "prum": 682,
      "por": 683,
      "CI": 684,
      "volo": 685,
      "cos": 686,
      "cone": 687,
      "nau": 688,
      "quan": 689,
      "24": 690,
      "sau": 691,
      "semb": 692,
      "Bearn": 693,
      "11": 694,
      "bat": 695,
      "Di": 696,
      "òrt": 697,
      "nat": 698,
      "ban": 699,
      "gat": 700,
      "main": 701,
      "ble": 702,
      "gia": 703,
      "ticas": 704,
      "daus": 705,
      "èg": 706,
      "enter": 707,
      "fica": 708,
      "mer": 709,
      "tament": 710,
      "peri": 711,
      "́ner": 712,
      "emb": 713,
      "grama": 714,
      "formacion": 715,
      "vò": 716,
      "tèx": 717,
      "ele": 718,
      "div": 719,
      "associacion": 720,
      "Sent": 721,
      "jar": 722,
      "Pirenèus": 723,
      "Pas": 724,
      "nadas": 725,
      "tiva": 726,
      "trans": 727,
      "amas": 728,
      "tru": 729,
      "desvolo": 730,
      "ad": 731,
      "menta": 732,
      "trò": 733,
      "arre": 734,
      "tien": 735,
      "arri": 736,
      "Me": 737,
      "jun": 738,
      "ura": 739,
      "Tra": 740,
      "anha": 741,
      "dreça": 742,
      "12": 743,
      "cs": 744,
      "region": 745,
      "ics": 746,
      "ís": 747,
      "tòri": 748,
      "çar": 749,
      "ida": 750,
      "ÒC": 751,
      "tradicionau": 752,
      "Ofici": 753,
      "tots": 754,
      "lèu": 755,
      "Ai": 756,
      "lite": 757,
      "tras": 758,
      "uei": 759,
      "14": 760,
      "cons": 761,
      "encon": 762,
      "dèu": 763,
      "versitat": 764,
      "IE": 765,
      "ves": 766,
      "cu": 767,
      "der": 768,
      "tit": 769,
      "ocu": 770,
      "ls": 771,
      "gam": 772,
      "cin": 773,
      "ara": 774,
      "tir": 775,
      "ion": 776,
      "sas": 777,
      "vent": 778,
      "peu": 779,
      "èras": 780,
      "cle": 781,
      "cada": 782,
      "Cultura": 783,
      "Mas": 784,
      "profes": 785,
      "ori": 786,
      "lò": 787,
      "comen": 788,
      "ratge": 789,
      "realiz": 790,
      "vèth": 791,
      "ron": 792,
      "18": 793,
      "person": 794,
      "30": 795,
      "là": 796,
      "numer": 797,
      "15": 798,
      "guèt": 799,
      "sons": 800,
      "era": 801,
      "ap": 802,
      "vas": 803,
      "atges": 804,
      "tòria": 805,
      "tèr": 806,
      "bon": 807,
      "desco": 808,
      "abri": 809,
      "ean": 810,
      "Po": 811,
      "Par": 812,
      "Esta": 813,
      "tics": 814,
      "prac": 815,
      "No": 816,
      "deman": 817,
      "vien": 818,
      "dinc": 819,
      "anh": 820,
      "nacion": 821,
      "vita": 822,
      "mso": 823,
      "lex": 824,
      "feréncia": 825,
      "Ber": 826,
      "fai": 827,
      "plaça": 828,
      "dat": 829,
      "vei": 830,
      "cant": 831,
      "tradicionaus": 832,
      "sac": 833,
      "lengado": 834,
      "terri": 835,
      "avè": 836,
      "Aqueth": 837,
      "Gasconha": 838,
      "hi": 839,
      "dança": 840,
      "França": 841,
      "lors": 842,
      "anta": 843,
      "uelh": 844,
      "encas": 845,
      "lengadocian": 846,
      "CD": 847,
      "sete": 848,
      "navèth": 849,
      "collec": 850,
      "pòt": 851,
      "estó": 852,
      "ces": 853,
      "rò": 854,
      "uèi": 855,
      "annada": 856,
      "Mi": 857,
      "Una": 858,
      "ensenhament": 859,
      "còr": 860,
      "uni": 861,
      "mia": 862,
      "especi": 863,
      "aver": 864,
      "atau": 865,
      "Pro": 866,
      "ora": 867,
      "duc": 868,
      "var": 869,
      "talh": 870,
      "Uni": 871,
      "let": 872,
      "200": 873,
      "aques": 874,
      "ric": 875,
      "junh": 876,
      "vèr": 877,
      "octo": 878,
      "anima": 879,
      "fe": 880,
      "hèi": 881,
      "Bordèu": 882,
      "orn": 883,
      "Conselh": 884,
      "seteme": 885,
      "tribalh": 886,
      "mission": 887,
      "soci": 888,
      "programa": 889,
      "litera": 890,
      "Cas": 891,
      "Jean": 892,
      "patrimòni": 893,
      "posi": 894,
      "fò": 895,
      "estagi": 896,
      "encastre": 897,
      "jec": 898,
      "losa": 899,
      "troba": 900,
      "ratz": 901,
      "Mus": 902,
      "eri": 903,
      "quí": 904,
      "pament": 905,
      "Lan": 906,
      "danças": 907,
      "enqu": 908,
      "So": 909,
      "canta": 910,
      "publica": 911,
      "fòr": 912,
      "jornada": 913,
      "aris": 914,
      "Tolosa": 915,
      "octobre": 916,
      "lhet": 917,
      "projècte": 918,
      "libe": 919,
      "ista": 920,
      "menge": 921,
      "éncias": 922,
      "creacion": 923,
      "Cha": 924,
      "Nos": 925,
      "aju": 926,
      "gòr": 927,
      "artis": 928,
      "organiza": 929,
      "diccion": 930,
      "hestau": 931,
      "́ncia": 932,
      "lle": 933,
      "març": 934,
      "tele": 935,
      "tota": 936,
      "chi": 937,
      "Com": 938,
      "esti": 939,
      "novè": 940,
      "13": 941,
      "èlh": 942,
      "nove": 943,
      "difer": 944,
      "logia": 945,
      "40": 946,
      "lus": 947,
      "vos": 948,
      "esp": 949,
      "ós": 950,
      "obratge": 951,
      "amassa": 952,
      "sions": 953,
      "especta": 954,
      "23": 955,
      "quauqu": 956,
      "06": 957,
      "16": 958,
      "fo": 959,
      "camp": 960,
      "julhet": 961,
      "Pe": 962,
      "aquò": 963,
      "roman": 964,
      "Pa": 965,
      "ber": 966,
      "gin": 967,
      "gut": 968,
      "han": 969,
      "ogra": 970,
      "conta": 971,
      "èstas": 972,
      "podetz": 973,
      "escò": 974,
      "parten": 975,
      "fan": 976,
      "Adreça": 977,
      "cors": 978,
      "ms": 979,
      "ison": 980,
      "ishen": 981,
      "lizacion": 982,
      "Region": 983,
      "puish": 984,
      "perme": 985,
      "22": 986,
      "vòs": 987,
      "Estagi": 988,
      "05": 989,
      "aca": 990,
      "jada": 991,
      "amor": 992,
      "25": 993,
      "Bo": 994,
      "pauc": 995,
      "Gar": 996,
      "RD": 997,
      "cer": 998,
      "oriz": 999,
      "prumèr": 1000,
      "iá": 1001,
      "lingüistica": 1002,
      "estudi": 1003,
      "aurà": 1004,
      "atz": 1005,
      "17": 1006,
      "bli": 1007,
      "prè": 1008,
      "autor": 1009,
      "çon": 1010,
      "litat": 1011,
      "bor": 1012,
      "èn": 1013,
      "tornar": 1014,
      "acomp": 1015,
      "òras": 1016,
      "tivi": 1017,
      "medi": 1018,
      "trobar": 1019,
      "Ins": 1020,
      "bearn": 1021,
      "ièr": 1022,
      "tari": 1023,
      "taus": 1024,
      "polifon": 1025,
      "Jor": 1026,
      "èrta": 1027,
      "docu": 1028,
      "ana": 1029,
      "ossi": 1030,
      "descobri": 1031,
      "Gu": 1032,
      "sens": 1033,
      "edicions": 1034,
      "mosin": 1035,
      "sh": 1036,
      "istòria": 1037,
      "tos": 1038,
      "naval": 1039,
      "uns": 1040,
      "bum": 1041,
      "bes": 1042,
      "mor": 1043,
      "sò": 1044,
      "respon": 1045,
      "bò": 1046,
      "fia": 1047,
      "music": 1048,
      "arren": 1049,
      "Universitat": 1050,
      "fami": 1051,
      "tèxtes": 1052,
      "imp": 1053,
      "vs": 1054,
      "entorn": 1055,
      "materi": 1056,
      "33": 1057,
      "ag": 1058,
      "veni": 1059,
      "noveme": 1060,
      "linha": 1061,
      "set": 1062,
      "navèra": 1063,
      "regi": 1064,
      "desvolopament": 1065,
      "abriu": 1066,
      "31": 1067,
      "urèr": 1068,
      "riá": 1069,
      "rè": 1070,
      "landre": 1071,
      "heurèr": 1072,
      "sèg": 1073,
      "contes": 1074,
      "aviá": 1075,
      "Res": 1076,
      "vau": 1077,
      "qué": 1078,
      "tions": 1079,
      "Mer": 1080,
      "ses": 1081,
      "21": 1082,
      "bla": 1083,
      "sin": 1084,
      "enes": 1085,
      "cí": 1086,
      "moment": 1087,
      "labo": 1088,
      "òt": 1089,
      "sub": 1090,
      "òbra": 1091,
      "donc": 1092,
      "politica": 1093,
      "Occitana": 1094,
      "Lu": 1095,
      "000": 1096,
      "IEO": 1097,
      "Fe": 1098,
      "Pi": 1099,
      "pus": 1100,
      "mbre": 1101,
      "fil": 1102,
      "26": 1103,
      "après": 1104,
      "eta": 1105,
      "2020": 1106,
      "duccion": 1107,
      "èrca": 1108,
      "pcion": 1109,
      "lic": 1110,
      "nivè": 1111,
      "Carnaval": 1112,
      "Navèra": 1113,
      "als": 1114,
      "Ver": 1115,
      "clas": 1116,
      "dimenge": 1117,
      "san": 1118,
      "ate": 1119,
      "arrevi": 1120,
      "ieu": 1121,
      "vin": 1122,
      "tius": 1123,
      "presen": 1124,
      "quauques": 1125,
      "materiau": 1126,
      "èl": 1127,
      "paci": 1128,
      "còps": 1129,
      "Bas": 1130,
      "passat": 1131,
      "Noste": 1132,
      "Ua": 1133,
      "dece": 1134,
      "actu": 1135,
      "prepaus": 1136,
      "dètz": 1137,
      "collè": 1138,
      "Vo": 1139,
      "soas": 1140,
      "dença": 1141,
      "mè": 1142,
      "cent": 1143,
      "eveni": 1144,
      "dio": 1145,
      "occitanas": 1146,
      "mana": 1147,
      "divés": 1148,
      "Os": 1149,
      "pòr": 1150,
      "consac": 1151,
      "veire": 1152,
      "fu": 1153,
      "vèrs": 1154,
      "tada": 1155,
      "È": 1156,
      "sar": 1157,
      "rai": 1158,
      "isme": 1159,
      "ligam": 1160,
      "atre": 1161,
      "abans": 1162,
      "formacions": 1163,
      "28": 1164,
      "Can": 1165,
      "ini": 1166,
      "tran": 1167,
      "inscri": 1168,
      "Les": 1169,
      "estar": 1170,
      "dir": 1171,
      "dire": 1172,
      "çons": 1173,
      "chas": 1174,
      "exp": 1175,
      "sembla": 1176,
      "vila": 1177,
      "concèrt": 1178,
      "Dens": 1179,
      "segon": 1180,
      "ost": 1181,
      "isher": 1182,
      "visi": 1183,
      "Calandre": 1184,
      "09": 1185,
      "fus": 1186,
      "dias": 1187,
      "escadença": 1188,
      "Du": 1189,
      "istè": 1190,
      "musi": 1191,
      "question": 1192,
      "ó": 1193,
      "sada": 1194,
      "Cla": 1195,
      "em": 1196,
      "èm": 1197,
      "prò": 1198,
      "espectacle": 1199,
      "país": 1200,
      "dís": 1201,
      "tí": 1202,
      "lhas": 1203,
      "tròp": 1204,
      "literatura": 1205,
      "descobrir": 1206,
      "03": 1207,
      "Pei": 1208,
      "etat": 1209,
      "radas": 1210,
      "deceme": 1211,
      "Bon": 1212,
      "Si": 1213,
      "ula": 1214,
      "trabalh": 1215,
      "poni": 1216,
      "sul": 1217,
      "autes": 1218,
      "òri": 1219,
      "torna": 1220,
      "parla": 1221,
      "préner": 1222,
      "Artis": 1223,
      "Al": 1224,
      "dri": 1225,
      "nas": 1226,
      "quin": 1227,
      "tec": 1228,
      "verta": 1229,
      "EN": 1230,
      "erau": 1231,
      "èrts": 1232,
      "servi": 1233,
      "òcs": 1234,
      "èron": 1235,
      "occitans": 1236,
      "LO": 1237,
      "umi": 1238,
      "ure": 1239,
      "experi": 1240,
      "partida": 1241,
      "vath": 1242,
      "màger": 1243,
      "ik": 1244,
      "èran": 1245,
      "éisher": 1246,
      "mots": 1247,
      "escola": 1248,
      "venç": 1249,
      "27": 1250,
      "Hèsta": 1251,
      "ena": 1252,
      "estiu": 1253,
      "annadas": 1254,
      "às": 1255,
      "04": 1256,
      "aquí": 1257,
      "sors": 1258,
      "estat": 1259,
      "CIRD": 1260,
      "II": 1261,
      "vari": 1262,
      "enti": 1263,
      "rá": 1264,
      "aud": 1265,
      "valoriz": 1266,
      "bras": 1267,
      "jan": 1268,
      "~~": 1269,
      "èch": 1270,
      "anar": 1271,
      "aut": 1272,
      "contra": 1273,
      "partir": 1274,
      "Mes": 1275,
      "seràn": 1276,
      "sia": 1277,
      "tema": 1278,
      "alis": 1279,
      "che": 1280,
      "hèit": 1281,
      "PCI": 1282,
      "pens": 1283,
      "issa": 1284,
      "dut": 1285,
      "musicas": 1286,
      "titut": 1287,
      "Des": 1288,
      "bona": 1289,
      "cians": 1290,
      "totas": 1291,
      "pera": 1292,
      "recuelh": 1293,
      "Institut": 1294,
      "avan": 1295,
      "medis": 1296,
      "Mont": 1297,
      "mainatges": 1298,
      "partenari": 1299,
      "29": 1300,
      "version": 1301,
      "emple": 1302,
      "alitat": 1303,
      "Ch": 1304,
      "Sèr": 1305,
      "poè": 1306,
      "tòca": 1307,
      "utiliz": 1308,
      "lexic": 1309,
      "cal": 1310,
      "lingüistic": 1311,
      "Te": 1312,
      "tacion": 1313,
      "vista": 1314,
      "ré": 1315,
      "cantas": 1316,
      "expres": 1317,
      "Letras": 1318,
      "territòri": 1319,
      "07": 1320,
      "47": 1321,
      "AC": 1322,
      "ident": 1323,
      "lei": 1324,
      "èa": 1325,
      "autas": 1326,
      "Hestau": 1327,
      "gor": 1328,
      "èsser": 1329,
      "Nadau": 1330,
      "pendent": 1331,
      "Artista": 1332,
      "Mau": 1333,
      "tora": 1334,
      "parlar": 1335,
      "Tot": 1336,
      "comença": 1337,
      "sègle": 1338,
      "Lar": 1339,
      "adas": 1340,
      "apren": 1341,
      "bia": 1342,
      "lia": 1343,
      "lé": 1344,
      "parta": 1345,
      "pel": 1346,
      "utís": 1347,
      "diccionari": 1348,
      "Sei": 1349,
      "dors": 1350,
      "mau": 1351,
      "ros": 1352,
      "onh": 1353,
      "ine": 1354,
      "album": 1355,
      "duas": 1356,
      "font": 1357,
      "vèrn": 1358,
      "Calandreta": 1359,
      "Dis": 1360,
      "Pai": 1361,
      "lica": 1362,
      "maison": 1363,
      "gue": 1364,
      "cançons": 1365,
      "Bal": 1366,
      "rias": 1367,
      "primi": 1368,
      "quand": 1369,
      "--": 1370,
      "01": 1371,
      "Mo": 1372,
      "orma": 1373,
      "torn": 1374,
      "02": 1375,
      "Patrimòni": 1376,
      "ants": 1377,
      "aquel": 1378,
      "tivitats": 1379,
      "Ne": 1380,
      "plen": 1381,
      "lacion": 1382,
      "provenç": 1383,
      "tempo": 1384,
      "lingüe": 1385,
      "long": 1386,
      "divèrs": 1387,
      "enqü": 1388,
      "Dor": 1389,
      "caus": 1390,
      "jas": 1391,
      "nes": 1392,
      "gui": 1393,
      "chan": 1394,
      "genèr": 1395,
      "PLO": 1396,
      "reg": 1397,
      "votz": 1398,
      "tèth": 1399,
      "fach": 1400,
      "bearnés": 1401,
      "if": 1402,
      "sig": 1403,
      "lustra": 1404,
      "partenariat": 1405,
      "Su": 1406,
      "ensa": 1407,
      "melh": 1408,
      "cinc": 1409,
      "Patri": 1410,
      "age": 1411,
      "lum": 1412,
      "pin": 1413,
      "demo": 1414,
      "inte": 1415,
      "disc": 1416,
      "Cap": 1417,
      "transmission": 1418,
      "gòrd": 1419,
      "iden": 1420,
      "jat": 1421,
      "jus": 1422,
      "popu": 1423,
      "ducacion": 1424,
      "Edicions": 1425,
      "bòria": 1426,
      "Min": 1427,
      "Tele": 1428,
      "camin": 1429,
      "ved": 1430,
      "instru": 1431,
      "gistra": 1432,
      "projèctes": 1433,
      "envi": 1434,
      "ers": 1435,
      "gascona": 1436,
      "Ang": 1437,
      "tèxte": 1438,
      "profession": 1439,
      "Lanas": 1440,
      "Sèrgi": 1441,
      "biais": 1442,
      "Ba": 1443,
      "dona": 1444,
      "darr": 1445,
      "jà": 1446,
      "mèr": 1447,
      "entas": 1448,
      "ont": 1449,
      "lip": 1450,
      "feréncias": 1451,
      "Musica": 1452,
      "Ostau": 1453,
      "satge": 1454,
      "conte": 1455,
      "nom": 1456,
      "dançar": 1457,
      "concèrts": 1458,
      "màs": 1459,
      "especiau": 1460,
      "shens": 1461,
      "enqüèra": 1462,
      "pur": 1463,
      "cis": 1464,
      "dèr": 1465,
      "nacionau": 1466,
      "País": 1467,
      "net": 1468,
      "espi": 1469,
      "reper": 1470,
      "part": 1471,
      "passa": 1472,
      "mesa": 1473,
      "etno": 1474,
      "Dic": 1475,
      "osa": 1476,
      "este": 1477,
      "art": 1478,
      "quauquarren": 1479,
      "hèstas": 1480,
      "nu": 1481,
      "quate": 1482,
      "ath": 1483,
      "èrra": 1484,
      "recèrca": 1485,
      "participar": 1486,
      "sorsas": 1487,
      "ilh": 1488,
      "autors": 1489,
      "òbras": 1490,
      "istor": 1491,
      "poes": 1492,
      "At": 1493,
      "dos": 1494,
      "alh": 1495,
      "preved": 1496,
      "éner": 1497,
      "Ja": 1498,
      "Wik": 1499,
      "lada": 1500,
      "istra": 1501,
      "objec": 1502,
      "hèn": 1503,
      "nivèu": 1504,
      "CO": 1505,
      "fau": 1506,
      "ensemb": 1507,
      "èri": 1508,
      "ard": 1509,
      "òu": 1510,
      "peus": 1511,
      "Cor": 1512,
      "miei": 1513,
      "vist": 1514,
      "arròt": 1515,
      "musicau": 1516,
      "CIRDÒC": 1517,
      "Ti": 1518,
      "rats": 1519,
      "vencion": 1520,
      "talhèrs": 1521,
      "ave": 1522,
      "bles": 1523,
      "dedi": 1524,
      "éder": 1525,
      "2015": 1526,
      "enregistra": 1527,
      "tivas": 1528,
      "libre": 1529,
      "balhar": 1530,
      "concors": 1531,
      "practica": 1532,
      "posicion": 1533,
      "escòla": 1534,
      "istèri": 1535,
      "medish": 1536,
      "Mic": 1537,
      "́ver": 1538,
      "difus": 1539,
      "tanha": 1540,
      "manent": 1541,
      "estagis": 1542,
      "Ligam": 1543,
      "08": 1544,
      "Ni": 1545,
      "hèra": 1546,
      "pat": 1547,
      "lament": 1548,
      "citània": 1549,
      "CF": 1550,
      "gina": 1551,
      "pun": 1552,
      "ère": 1553,
      "logi": 1554,
      "tatge": 1555,
      "Occitània": 1556,
      "tribu": 1557,
      "Aquera": 1558,
      "ajuda": 1559,
      "Sa": 1560,
      "nòs": 1561,
      "deban": 1562,
      "tian": 1563,
      "siá": 1564,
      "temporan": 1565,
      "contemporan": 1566,
      "partament": 1567,
      "acor": 1568,
      "mesti": 1569,
      "personas": 1570,
      "Ador": 1571,
      "Eu": 1572,
      "Jan": 1573,
      "Publi": 1574,
      "eth": 1575,
      "aura": 1576,
      "rei": 1577,
      "mentau": 1578,
      "comunica": 1579,
      "coneishen": 1580,
      "ueit": 1581,
      "sarròt": 1582,
      "zo": 1583,
      "dé": 1584,
      "ancian": 1585,
      "augan": 1586,
      "vilat": 1587,
      "bibli": 1588,
      "ensenhaires": 1589,
      "setmana": 1590,
      "fas": 1591,
      "deon": 1592,
      "teatre": 1593,
      "cont": 1594,
      "cargar": 1595,
      "poder": 1596,
      "diferents": 1597,
      "ho": 1598,
      "ias": 1599,
      "lai": 1600,
      "conferéncias": 1601,
      "Estat": 1602,
      "frances": 1603,
      "entaus": 1604,
      "donha": 1605,
      "passar": 1606,
      "animacions": 1607,
      "65": 1608,
      "Gran": 1609,
      "nis": 1610,
      "uish": 1611,
      "matge": 1612,
      "Dordonha": 1613,
      "Pres": 1614,
      "ressorsas": 1615,
      "disponi": 1616,
      "bals": 1617,
      "comple": 1618,
      "Annada": 1619,
      "animat": 1620,
      "jècte": 1621,
      "besonh": 1622,
      "-->": 1623,
      "ensemble": 1624,
      "Man": 1625,
      "ds": 1626,
      "sei": 1627,
      "ze": 1628,
      "enlà": 1629,
      "rament": 1630,
      "serada": 1631,
      "accion": 1632,
      "volu": 1633,
      "aqueths": 1634,
      "numeric": 1635,
      "eveniment": 1636,
      "tem": 1637,
      "balha": 1638,
      "totjorn": 1639,
      "199": 1640,
      "seguida": 1641,
      "enessa": 1642,
      "escolans": 1643,
      "cul": 1644,
      "queu": 1645,
      "dago": 1646,
      "tracta": 1647,
      "accions": 1648,
      "sostien": 1649,
      "Bar": 1650,
      "deci": 1651,
      "mie": 1652,
      "collabo": 1653,
      "sortir": 1654,
      "immateriau": 1655,
      "ductor": 1656,
      "acions": 1657,
      "gre": 1658,
      "pic": 1659,
      "ty": 1660,
      "èla": 1661,
      "mbi": 1662,
      "publicacion": 1663,
      "rector": 1664,
      "Aus": 1665,
      "Son": 1666,
      "pan": 1667,
      "entau": 1668,
      "quela": 1669,
      "vida": 1670,
      "compren": 1671,
      "dont": 1672,
      "Associa": 1673,
      "presentacion": 1674,
      "regionau": 1675,
      "avèva": 1676,
      "cro": 1677,
      "uda": 1678,
      "inven": 1679,
      "matin": 1680,
      "pair": 1681,
      "basco": 1682,
      "Aques": 1683,
      "Deu": 1684,
      "vrès": 1685,
      "isson": 1686,
      "guda": 1687,
      "pedago": 1688,
      "Peri": 1689,
      "joenessa": 1690,
      "illustra": 1691,
      "encontre": 1692,
      "acompanha": 1693,
      "inicia": 1694,
      "Centre": 1695,
      "Do": 1696,
      "pòrt": 1697,
      "esa": 1698,
      "conferéncia": 1699,
      "present": 1700,
      "Lemosin": 1701,
      "provençau": 1702,
      "Bona": 1703,
      "OPLO": 1704,
      "̀s": 1705,
      "ança": 1706,
      "togra": 1707,
      "sonque": 1708,
      "mili": 1709,
      "seria": 1710,
      "participa": 1711,
      "sci": 1712,
      "uras": 1713,
      "legi": 1714,
      "leccion": 1715,
      "genera": 1716,
      "causi": 1717,
      "realizat": 1718,
      "vrèspe": 1719,
      "Sau": 1720,
      "Sab": 1721,
      "ly": 1722,
      "rent": 1723,
      "autres": 1724,
      "mustra": 1725,
      "pòden": 1726,
      "basa": 1727,
      "ací": 1728,
      "espaci": 1729,
      "vant": 1730,
      "demanda": 1731,
      "èlhs": 1732,
      "Dab": 1733,
      "Lau": 1734,
      "hic": 1735,
      "mats": 1736,
      "char": 1737,
      "nonmàs": 1738,
      "novèlas": 1739,
      "ografia": 1740,
      "Mercés": 1741,
      "Bai": 1742,
      "ie": 1743,
      "jaus": 1744,
      "vri": 1745,
      "artic": 1746,
      "pòle": 1747,
      "prumèra": 1748,
      "títol": 1749,
      "repertòri": 1750,
      "CFP": 1751,
      "Vau": 1752,
      "nci": 1753,
      "uts": 1754,
      "voc": 1755,
      "́ncias": 1756,
      "format": 1757,
      "Dissabte": 1758,
      "acordeon": 1759,
      "Tro": 1760,
      "Vath": 1761,
      "ete": 1762,
      "ï": 1763,
      "possi": 1764,
      "lemosin": 1765,
      "boha": 1766,
      "permet": 1767,
      "Associacion": 1768,
      "Ju": 1769,
      "ide": 1770,
      "mé": 1771,
      "tia": 1772,
      "perpausa": 1773,
      "paréisher": 1774,
      "Augan": 1775,
      "poderatz": 1776,
      "Francés": 1777,
      "fòrça": 1778,
      "poesia": 1779,
      "Tis": 1780,
      "permanent": 1781,
      "conselh": 1782,
      "òrd": 1783,
      "aquela": 1784,
      "èira": 1785,
      "Arnau": 1786,
      "nosta": 1787,
      "practicas": 1788,
      "tematica": 1789,
      "Non": 1790,
      "auto": 1791,
      "president": 1792,
      "exemple": 1793,
      "fav": 1794,
      "generau": 1795,
      "lectura": 1796,
      "sorti": 1797,
      "estudis": 1798,
      "Trad": 1799,
      "díser": 1800,
      "elh": 1801,
      "elec": 1802,
      "uman": 1803,
      "iste": 1804,
      "Loís": 1805,
      "aire": 1806,
      "jamai": 1807,
      "umit": 1808,
      "valorizacion": 1809,
      "agra": 1810,
      "partat": 1811,
      "sovent": 1812,
      "visu": 1813,
      "còla": 1814,
      "comunas": 1815,
      "ES": 1816,
      "Pan": 1817,
      "her": 1818,
      "hat": 1819,
      "dièra": 1820,
      "informacions": 1821,
      "gada": 1822,
      "actors": 1823,
      "bilingu": 1824,
      "sensi": 1825,
      "Mari": 1826,
      "fla": 1827,
      "mari": 1828,
      "dit": 1829,
      "contribu": 1830,
      "sec": 1831,
      "mica": 1832,
      "produs": 1833,
      "mant": 1834,
      "cants": 1835,
      "iron": 1836,
      "titucion": 1837,
      "encontres": 1838,
      "IÈ": 1839,
      "Jornada": 1840,
      "Atlan": 1841,
      "Baiona": 1842,
      "Ac": 1843,
      "Jac": 1844,
      "plas": 1845,
      "ral": 1846,
      "parat": 1847,
      "faiçon": 1848,
      "campanha": 1849,
      "TE": 1850,
      "adreça": 1851,
      "bòs": 1852,
      "iss": 1853,
      "isto": 1854,
      "té": 1855,
      "simp": 1856,
      "pec": 1857,
      "venir": 1858,
      "mont": 1859,
      "Novè": 1860,
      "escòlas": 1861,
      "ps": 1862,
      "plu": 1863,
      "ux": 1864,
      "ètz": 1865,
      "auta": 1866,
      "Inter": 1867,
      "tèrra": 1868,
      "aqueste": 1869,
      "IÈO": 1870,
      "eish": 1871,
      "gne": 1872,
      "tadas": 1873,
      "dier": 1874,
      "dob": 1875,
      "urs": 1876,
      "Comp": 1877,
      "jorns": 1878,
      "grops": 1879,
      "Jornadas": 1880,
      "Mauri": 1881,
      "Ben": 1882,
      "Char": 1883,
      "Val": 1884,
      "its": 1885,
      "totes": 1886,
      "2014": 1887,
      "aqueras": 1888,
      "companh": 1889,
      "suus": 1890,
      "bilingüe": 1891,
      "familha": 1892,
      "regions": 1893,
      "licèu": 1894,
      "Atlantics": 1895,
      "Eur": 1896,
      "Pen": 1897,
      "Tar": 1898,
      "avent": 1899,
      "bres": 1900,
      "cuelh": 1901,
      "hon": 1902,
      "hèsta": 1903,
      "engat": 1904,
      "indi": 1905,
      "soli": 1906,
      "comunau": 1907,
      "truc": 1908,
      "diccionaris": 1909,
      "Garona": 1910,
      "vriul": 1911,
      "Dani": 1912,
      "Go": 1913,
      "cen": 1914,
      "dieu": 1915,
      "untz": 1916,
      "tostemps": 1917,
      "Laruntz": 1918,
      "Anglet": 1919,
      "fre": 1920,
      "itat": 1921,
      "estran": 1922,
      "tèma": 1923,
      "tron": 1924,
      "europ": 1925,
      "carr": 1926,
      "escritura": 1927,
      "natura": 1928,
      "regionaus": 1929,
      "documenta": 1930,
      "tyle": 1931,
      "Vin": 1932,
      "equi": 1933,
      "tito": 1934,
      "tants": 1935,
      "situ": 1936,
      "peti": 1937,
      "comuna": 1938,
      "princi": 1939,
      "avia": 1940,
      "tròç": 1941,
      "Culturau": 1942,
      "consacrat": 1943,
      "francesa": 1944,
      "Lin": 1945,
      "ado": 1946,
      "çat": 1947,
      "vidè": 1948,
      "ressor": 1949,
      "doman": 1950,
      "Vilh": 1951,
      "vòu": 1952,
      "Tor": 1953,
      "fen": 1954,
      "mès": 1955,
      "pes": 1956,
      "desi": 1957,
      "lhièr": 1958,
      "candi": 1959,
      "Conta": 1960,
      "compete": 1961,
      "sortit": 1962,
      "Ser": 1963,
      "lòc": 1964,
      "sèt": 1965,
      "enh": 1966,
      "òus": 1967,
      "éri": 1968,
      "traduccion": 1969,
      "sol": 1970,
      "adap": 1971,
      "heis": 1972,
      "Castèth": 1973,
      "Resumit": 1974,
      "espiar": 1975,
      "nuèch": 1976,
      "mestièr": 1977,
      "Public": 1978,
      "Aca": 1979,
      "dra": 1980,
      "etz": 1981,
      "enca": 1982,
      "ture": 1983,
      "guts": 1984,
      "Òu": 1985,
      "èit": 1986,
      "èire": 1987,
      "culturas": 1988,
      "hel": 1989,
      "arriba": 1990,
      "impor": 1991,
      "Ri": 1992,
      "ima": 1993,
      "nèr": 1994,
      "pis": 1995,
      "autre": 1996,
      "produc": 1997,
      "Comen": 1998,
      "vision": 1999,
      "drò": 2000,
      "osi": 2001,
      "sur": 2002,
      "chau": 2003,
      "trobaratz": 2004,
      "debana": 2005,
      "Tisnèr": 2006,
      "Novèla": 2007,
      "lab": 2008,
      "revi": 2009,
      "tori": 2010,
      "trobat": 2011,
      "diferentas": 2012,
      "identi": 2013,
      "coneishença": 2014,
      "Vilhèra": 2015,
      "Amas": 2016,
      "Cons": 2017,
      "hòrt": 2018,
      "lari": 2019,
      "contien": 2020,
      "segur": 2021,
      "professor": 2022,
      "ajudar": 2023,
      "arrevirada": 2024,
      "objectiu": 2025,
      "Michel": 2026,
      "É": 2027,
      "cèr": 2028,
      "eb": 2029,
      "pia": 2030,
      "enat": 2031,
      "òpa": 2032,
      "partic": 2033,
      "ràs": 2034,
      "vai": 2035,
      "Estu": 2036,
      "etc": 2037,
      "Bigòr": 2038,
      "Bigòrra": 2039,
      "Après": 2040,
      "Cres": 2041,
      "Educacion": 2042,
      "Is": 2043,
      "Ter": 2044,
      "fr": 2045,
      "sheis": 2046,
      "qua": 2047,
      "log": 2048,
      "rit": 2049,
      "coman": 2050,
      "lhs": 2051,
      "passe": 2052,
      "pais": 2053,
      "ponim": 2054,
      "causa": 2055,
      "darrèr": 2056,
      "sensibi": 2057,
      "Dins": 2058,
      "Lex": 2059,
      "Pèire": 2060,
      "cès": 2061,
      "mul": 2062,
      "om": 2063,
      "ofici": 2064,
      "quet": 2065,
      "cata": 2066,
      "memb": 2067,
      "presa": 2068,
      "198": 2069,
      "PA": 2070,
      "ais": 2071,
      "ièrs": 2072,
      "rot": 2073,
      "produccion": 2074,
      "abor": 2075,
      "escrivan": 2076,
      "scienti": 2077,
      "Euròpa": 2078,
      "Mé": 2079,
      "bèra": 2080,
      "dun": 2081,
      "jos": 2082,
      "ry": 2083,
      "lats": 2084,
      "lana": 2085,
      "erre": 2086,
      "davant": 2087,
      "Lou": 2088,
      "preci": 2089,
      "ministra": 2090,
      "seguit": 2091,
      "organizat": 2092,
      "prepausarà": 2093,
      "Bernat": 2094,
      "Wiki": 2095,
      "Dan": 2096,
      "Jau": 2097,
      "Pri": 2098,
      "Plan": 2099,
      "aqui": 2100,
      "gés": 2101,
      "hor": 2102,
      "Quin": 2103,
      "vetz": 2104,
      "tresau": 2105,
      "costat": 2106,
      "~~~": 2107,
      "comunicacion": 2108,
      "Bau": 2109,
      "Ra": 2110,
      "cles": 2111,
      "fra": 2112,
      "ple": 2113,
      "dés": 2114,
      "èas": 2115,
      "atè": 2116,
      "téner": 2117,
      "toponim": 2118,
      "via": 2119,
      "moni": 2120,
      "mercés": 2121,
      "encontra": 2122,
      "ografica": 2123,
      "musicaus": 2124,
      "classi": 2125,
      "instruments": 2126,
      "Chan": 2127,
      "Im": 2128,
      "Mor": 2129,
      "Ren": 2130,
      "XI": 2131,
      "cè": 2132,
      "cus": 2133,
      "je": 2134,
      "ois": 2135,
      "departa": 2136,
      "quaus": 2137,
      "èth": 2138,
      "dina": 2139,
      "queta": 2140,
      "domen": 2141,
      "trèrs": 2142,
      "Col": 2143,
      "publics": 2144,
      "Peiri": 2145,
      "Patric": 2146,
      "78": 2147,
      "aost": 2148,
      "hue": 2149,
      "id": 2150,
      "ude": 2151,
      "véder": 2152,
      "demia": 2153,
      "quas": 2154,
      "dicions": 2155,
      "dijaus": 2156,
      "isa": 2157,
      "isha": 2158,
      "lés": 2159,
      "parau": 2160,
      "mens": 2161,
      "Aul": 2162,
      "Br": 2163,
      "Sos": 2164,
      "acos": 2165,
      "cron": 2166,
      "ivèrn": 2167,
      "jòcs": 2168,
      "èja": 2169,
      "estruc": 2170,
      "litats": 2171,
      "mpuèi": 2172,
      "acs": 2173,
      "grana": 2174,
      "abi": 2175,
      "instal": 2176,
      "Departament": 2177,
      "darri": 2178,
      "associacions": 2179,
      "IS": 2180,
      "ciau": 2181,
      "assegu": 2182,
      "òra": 2183,
      "dièr": 2184,
      "riques": 2185,
      "cionari": 2186,
      "mair": 2187,
      "èrtas": 2188,
      "perpaus": 2189,
      "sem": 2190,
      "haràn": 2191,
      "para": 2192,
      "vern": 2193,
      "ècte": 2194,
      "dusau": 2195,
      "Bernar": 2196,
      "fòrma": 2197,
      "regiona": 2198,
      "collègi": 2199,
      "pòrta": 2200,
      "Fo": 2201,
      "LA": 2202,
      "eur": 2203,
      "fis": 2204,
      "gres": 2205,
      "ler": 2206,
      "toc": 2207,
      "yre": 2208,
      "rana": 2209,
      "qual": 2210,
      "èva": 2211,
      "çan": 2212,
      "rosa": 2213,
      "sopar": 2214,
      "mitat": 2215,
      "compte": 2216,
      "culturaus": 2217,
      "còs": 2218,
      "mars": 2219,
      "cripcion": 2220,
      "France": 2221,
      "Occitania": 2222,
      "tivitat": 2223,
      "automa": 2224,
      "apréner": 2225,
      "ença": 2226,
      "enfan": 2227,
      "latin": 2228,
      "èma": 2229,
      "èlha": 2230,
      "mal": 2231,
      "rós": 2232,
      "miat": 2233,
      "dura": 2234,
      "noms": 2235,
      "Coma": 2236,
      "obli": 2237,
      "Camb": 2238,
      "Enfin": 2239,
      "crear": 2240,
      "organizada": 2241,
      "noste": 2242,
      "Bearnés": 2243,
      "fòra": 2244,
      "divèrsas": 2245,
      "Ministèri": 2246,
      "vilatge": 2247,
      "inventari": 2248,
      "atèca": 2249,
      "Agen": 2250,
      "Canta": 2251,
      "DE": 2252,
      "Dacs": 2253,
      "avo": 2254,
      "bès": 2255,
      "fal": 2256,
      "patri": 2257,
      "arcuelh": 2258,
      "òme": 2259,
      "liá": 2260,
      "Qué": 2261,
      "valo": 2262,
      "lina": 2263,
      "doin": 2264,
      "benlèu": 2265,
      "compre": 2266,
      "escha": 2267,
      "chamis": 2268,
      "interès": 2269,
      "aquesta": 2270,
      "vriulon": 2271,
      "Medi": 2272,
      "bran": 2273,
      "dats": 2274,
      "fres": 2275,
      "gats": 2276,
      "sis": 2277,
      "guèron": 2278,
      "mej": 2279,
      "the": 2280,
      "taula": 2281,
      "Escòla": 2282,
      "fini": 2283,
      "vatòri": 2284,
      "numerica": 2285,
      "musicians": 2286,
      "contemporanèa": 2287,
      "multi": 2288,
      "Ag": 2289,
      "Ara": 2290,
      "Ali": 2291,
      "Bre": 2292,
      "Ç": 2293,
      "OC": 2294,
      "Sala": 2295,
      "ets": 2296,
      "vans": 2297,
      "èir": 2298,
      "dic": 2299,
      "ditz": 2300,
      "director": 2301,
      "quitament": 2302,
      "escar": 2303,
      "interes": 2304,
      "elegi": 2305,
      "lòqui": 2306,
      "collectivitats": 2307,
      "trobadors": 2308,
      "prèmi": 2309,
      "Sud": 2310,
      "favor": 2311,
      "1èr": 2312,
      "Adieu": 2313,
      "tons": 2314,
      "dem": 2315,
      "lara": 2316,
      "ert": 2317,
      "aulh": 2318,
      "pels": 2319,
      "comptar": 2320,
      "adul": 2321,
      "Nove": 2322,
      "presentar": 2323,
      "Lingu": 2324,
      "DV": 2325,
      "erà": 2326,
      "viu": 2327,
      "gions": 2328,
      "Òut": 2329,
      "acce": 2330,
      "ratòri": 2331,
      "finan": 2332,
      "lars": 2333,
      "Gascons": 2334,
      "cate": 2335,
      "Miqu": 2336,
      "Pierre": 2337,
      "perator": 2338,
      "Lexic": 2339,
      "DVD": 2340,
      "32": 2341,
      "AP": 2342,
      "Menes": 2343,
      "sent": 2344,
      "lais": 2345,
      "oron": 2346,
      "leta": 2347,
      "aires": 2348,
      "Escri": 2349,
      "testi": 2350,
      "move": 2351,
      "chap": 2352,
      "internacionau": 2353,
      "prima": 2354,
      "amics": 2355,
      "portar": 2356,
      "acompanh": 2357,
      "Perigòrd": 2358,
      "Menestrèrs": 2359,
      "Dau": 2360,
      "Fai": 2361,
      "Giron": 2362,
      "ou": 2363,
      "utas": 2364,
      "guar": 2365,
      "aiga": 2366,
      "vencions": 2367,
      "jament": 2368,
      "Maison": 2369,
      "estudiants": 2370,
      "dedicat": 2371,
      "Aussau": 2372,
      "Baudoin": 2373,
      "Auloron": 2374,
      "Cambria": 2375,
      "Fa": 2376,
      "Hèstas": 2377,
      "tària": 2378,
      "Lab": 2379,
      "dessen": 2380,
      "cançon": 2381,
      "tard": 2382,
      "able": 2383,
      "capvath": 2384,
      "Biarn": 2385,
      "ègjorn": 2386,
      "filme": 2387,
      "vertadièra": 2388,
      "causas": 2389,
      "pedagog": 2390,
      "Et": 2391,
      "Ex": 2392,
      "hens": 2393,
      "ira": 2394,
      "pos": 2395,
      "tava": 2396,
      "representa": 2397,
      "diversitat": 2398,
      "Quau": 2399,
      "langu": 2400,
      "gascons": 2401,
      "creat": 2402,
      "lhada": 2403,
      "coneish": 2404,
      "enquèsta": 2405,
      "artistas": 2406,
      "tecno": 2407,
      "Nico": 2408,
      "méter": 2409,
      "Amassada": 2410,
      "Bernard": 2411,
      "Ací": 2412,
      "bèrta": 2413,
      "pcions": 2414,
      "dejà": 2415,
      "locu": 2416,
      "coo": 2417,
      "pod": 2418,
      "Entà": 2419,
      "Regions": 2420,
      "inspi": 2421,
      "foncion": 2422,
      "hasó": 2423,
      "grand": 2424,
      "consul": 2425,
      "documents": 2426,
      "Montpe": 2427,
      "expressions": 2428,
      "estructura": 2429,
      "Gen": 2430,
      "Tres": 2431,
      "idè": 2432,
      "endre": 2433,
      "lau": 2434,
      "citat": 2435,
      "dil": 2436,
      "inas": 2437,
      "duda": 2438,
      "modèr": 2439,
      "composi": 2440,
      "arron": 2441,
      "administra": 2442,
      "artistica": 2443,
      "Luc": 2444,
      "expression": 2445,
      "bru": 2446,
      "dòc": 2447,
      "fac": 2448,
      "encar": 2449,
      "ciu": 2450,
      "aute": 2451,
      "caires": 2452,
      "vit": 2453,
      "podètz": 2454,
      "peracion": 2455,
      "vam": 2456,
      "desti": 2457,
      "voca": 2458,
      "tèt": 2459,
      "tòris": 2460,
      "père": 2461,
      "amass": 2462,
      "Guilh": 2463,
      "Baish": 2464,
      "Còr": 2465,
      "MD": 2466,
      "bus": 2467,
      "flu": 2468,
      "pèr": 2469,
      "web": 2470,
      "organ": 2471,
      "dada": 2472,
      "saina": 2473,
      "contin": 2474,
      "travèrs": 2475,
      "Este": 2476,
      "mocion": 2477,
      "jornadas": 2478,
      "totun": 2479,
      "Departa": 2480,
      "Serada": 2481,
      "organizan": 2482,
      "Martin": 2483,
      "publicat": 2484,
      "sason": 2485,
      "cantèra": 2486,
      "responsab": 2487,
      "agost": 2488,
      "poèmas": 2489,
      "mieja": 2490,
      "Maurici": 2491,
      "Miquèu": 2492,
      "Montpelhièr": 2493,
      "diluns": 2494,
      "Ala": 2495,
      "Eric": 2496,
      "Operator": 2497,
      "apar": 2498,
      "fab": 2499,
      "lista": 2500,
      "antas": 2501,
      "rece": 2502,
      "diat": 2503,
      "tanta": 2504,
      "grans": 2505,
      "questions": 2506,
      "seguir": 2507,
      "estón": 2508,
      "vòlen": 2509,
      "navèras": 2510,
      "eveniments": 2511,
      "pensar": 2512,
      "professionaus": 2513,
      "avem": 2514,
      "visuau": 2515,
      "riquessa": 2516,
      "ament": 2517,
      "oras": 2518,
      "tès": 2519,
      "cadun": 2520,
      "proc": 2521,
      "viá": 2522,
      "memò": 2523,
      "membre": 2524,
      "activitats": 2525,
      "cel": 2526,
      "Andre": 2527,
      "adara": 2528,
      "societat": 2529,
      "posicions": 2530,
      "chius": 2531,
      "novèla": 2532,
      "ginas": 2533,
      "segond": 2534,
      "enviar": 2535,
      "Diccionari": 2536,
      "Jacques": 2537,
      "ressorsa": 2538,
      "competéncias": 2539,
      "imagin": 2540,
      "membres": 2541,
      "60": 2542,
      "Bes": 2543,
      "Ens": 2544,
      "Pala": 2545,
      "Vari": 2546,
      "fron": 2547,
      "enri": 2548,
      "taris": 2549,
      "inedi": 2550,
      "percus": 2551,
      "vièlh": 2552,
      "manca": 2553,
      "ubèrta": 2554,
      "nombre": 2555,
      "linguis": 2556,
      "Referéncia": 2557,
      "Quand": 2558,
      "crida": 2559,
      "pensa": 2560,
      "family": 2561,
      "donadas": 2562,
      "punt": 2563,
      "Estudis": 2564,
      "Peirigòrd": 2565,
      "34": 2566,
      "Forma": 2567,
      "Gi": 2568,
      "RS": 2569,
      "item": 2570,
      "tges": 2571,
      "dera": 2572,
      "dimèr": 2573,
      "viatge": 2574,
      "romatge": 2575,
      "àl": 2576,
      "despuish": 2577,
      "descargar": 2578,
      "mond": 2579,
      "pòde": 2580,
      "immer": 2581,
      "escotar": 2582,
      "universi": 2583,
      "estiv": 2584,
      "Javalo": 2585,
      "hicar": 2586,
      "Marie": 2587,
      "mejans": 2588,
      "dimèrcs": 2589,
      "Javaloy": 2590,
      "AR": 2591,
      "Aran": 2592,
      "Ci": 2593,
      "ON": 2594,
      "Ré": 2595,
      "cra": 2596,
      "epò": 2597,
      "etats": 2598,
      "gent": 2599,
      "mn": 2600,
      "orau": 2601,
      "desa": 2602,
      "dempuèi": 2603,
      "mada": 2604,
      "lega": 2605,
      "tut": 2606,
      "gü": 2607,
      "mira": 2608,
      "veja": 2609,
      "neces": 2610,
      "tèsi": 2611,
      "Aura": 2612,
      "formas": 2613,
      "minari": 2614,
      "Recla": 2615,
      "establi": 2616,
      "Andri": 2617,
      "apli": 2618,
      "collectiu": 2619,
      "servici": 2620,
      "bibliografica": 2621,
      "Aqueste": 2622,
      "diaton": 2623,
      "Ensen": 2624,
      "àlbum": 2625,
      "50": 2626,
      "Fau": 2627,
      "Pap": 2628,
      "gr": 2629,
      "laça": 2630,
      "regu": 2631,
      "conéisher": 2632,
      "resul": 2633,
      "èias": 2634,
      "sús": 2635,
      "Arri": 2636,
      "valor": 2637,
      "ficacion": 2638,
      "origina": 2639,
      "socio": 2640,
      "expli": 2641,
      "purmèr": 2642,
      "difusion": 2643,
      "jeccion": 2644,
      "Javaloyès": 2645,
      "Reclams": 2646,
      "cèrca": 2647,
      "mnas": 2648,
      "tòr": 2649,
      "rason": 2650,
      "aux": 2651,
      "reve": 2652,
      "convi": 2653,
      "tur": 2654,
      "acòrd": 2655,
      "complè": 2656,
      "colleccion": 2657,
      "lingüisticas": 2658,
      "ficar": 2659,
      "buta": 2660,
      "mainats": 2661,
      "Traductor": 2662,
      "literari": 2663,
      "Chap": 2664,
      "espectacles": 2665,
      "collaboracion": 2666,
      "títols": 2667,
      "Tarba": 2668,
      "carrèra": 2669,
      "situacion": 2670,
      "candidat": 2671,
      "quasi": 2672,
      "\",": 2673,
      "Fé": 2674,
      "PE": 2675,
      "Tau": 2676,
      "dossi": 2677,
      "hons": 2678,
      "estra": 2679,
      "ortogra": 2680,
      "ref": 2681,
      "dadas": 2682,
      "viure": 2683,
      "viéner": 2684,
      "sole": 2685,
      "grafia": 2686,
      "vença": 2687,
      "Contes": 2688,
      "maire": 2689,
      "objècte": 2690,
      "tencion": 2691,
      "brava": 2692,
      "atrimònis": 2693,
      "emplec": 2694,
      "Comun": 2695,
      "amassada": 2696,
      "tecn": 2697,
      "integra": 2698,
      "CFPÒC": 2699,
      "vocau": 2700,
      "Daniel": 2701,
      "sensibilizacion": 2702,
      "Rò": 2703,
      "afic": 2704,
      "piren": 2705,
      "org": 2706,
      "2013": 2707,
      "duo": 2708,
      "prem": 2709,
      "Espère": 2710,
      "presas": 2711,
      "voles": 2712,
      "bene": 2713,
      "joens": 2714,
      "ambi": 2715,
      "Vila": 2716,
      "desvolopar": 2717,
      "literà": 2718,
      "Bonjorn": 2719,
      "ageish": 2720,
      "purm": 2721,
      "Comengés": 2722,
      "identitat": 2723,
      "Gironda": 2724,
      "MDT": 2725,
      "AN": 2726,
      "Lescar": 2727,
      "Sus": 2728,
      "hia": 2729,
      "of": 2730,
      "sès": 2731,
      "radi": 2732,
      "rela": 2733,
      "òta": 2734,
      "liber": 2735,
      "sala": 2736,
      "ostal": 2737,
      "2012": 2738,
      "mbra": 2739,
      "mièlhs": 2740,
      "montanha": 2741,
      "Camin": 2742,
      "estada": 2743,
      "Maria": 2744,
      "Passem": 2745,
      "fòtos": 2746,
      "contac": 2747,
      "demora": 2748,
      "nòstra": 2749,
      "titolat": 2750,
      "compréner": 2751,
      "Formacion": 2752,
      "70": 2753,
      "Eth": 2754,
      "For": 2755,
      "amp": 2756,
      "aperi": 2757,
      "blan": 2758,
      "gun": 2759,
      "lis": 2760,
      "pal": 2761,
      "defòra": 2762,
      "enque": 2763,
      "referéncia": 2764,
      "dico": 2765,
      "rin": 2766,
      "lice": 2767,
      "comb": 2768,
      "legen": 2769,
      "vid": 2770,
      "trajec": 2771,
      "lhar": 2772,
      "sonsaina": 2773,
      "rota": 2774,
      "poe": 2775,
      "podia": 2776,
      "chat": 2777,
      "preséncia": 2778,
      "vistas": 2779,
      "Camp": 2780,
      "gasconas": 2781,
      "collòqui": 2782,
      "pitit": 2783,
      "Aquel": 2784,
      "curi": 2785,
      "talhèr": 2786,
      "Èra": 2787,
      "torala": 2788,
      "chamisa": 2789,
      "movement": 2790,
      "Biarnés": 2791,
      "André": 2792,
      "epòca": 2793,
      "59": 2794,
      "Atau": 2795,
      "educacion": 2796,
      "lòcs": 2797,
      "pèira": 2798,
      "tona": 2799,
      "vés": 2800,
      "detz": 2801,
      "òde": 2802,
      "òle": 2803,
      "locaus": 2804,
      "informacion": 2805,
      "usk": 2806,
      "issons": 2807,
      "gues": 2808,
      "met": 2809,
      "mpuish": 2810,
      "tàrias": 2811,
      "manda": 2812,
      "òrta": 2813,
      "mensh": 2814,
      "volè": 2815,
      "volon": 2816,
      "existe": 2817,
      "tància": 2818,
      "puèi": 2819,
      "tòrias": 2820,
      "navèths": 2821,
      "television": 2822,
      "màgers": 2823,
      "Troba": 2824,
      "domeni": 2825,
      "language": 2826,
      "diatonic": 2827,
      "Pari": 2828,
      "Phi": 2829,
      "Ta": 2830,
      "Tel": 2831,
      "lles": 2832,
      "ologia": 2833,
      "plo": 2834,
      "tge": 2835,
      "essa": 2836,
      "òtas": 2837,
      "perqué": 2838,
      "consi": 2839,
      "çois": 2840,
      "parlan": 2841,
      "pression": 2842,
      "mot": 2843,
      "riam": 2844,
      "totplen": 2845,
      "Tots": 2846,
      "Occitanas": 2847,
      "pausar": 2848,
      "pèdia": 2849,
      "arrib": 2850,
      "descobèrta": 2851,
      "consacrada": 2852,
      "iniciacion": 2853,
      "Arnaudin": 2854,
      "aventuras": 2855,
      "debanarà": 2856,
      "scientifica": 2857,
      "enquera": 2858,
      "Ad": 2859,
      "BN": 2860,
      "dans": 2861,
      "fons": 2862,
      "pt": 2863,
      "ulh": 2864,
      "déncia": 2865,
      "qualitat": 2866,
      "revista": 2867,
      "tís": 2868,
      "Qui": 2869,
      "èstre": 2870,
      "soi": 2871,
      "destin": 2872,
      "desjà": 2873,
      "gason": 2874,
      "minor": 2875,
      "Encon": 2876,
      "bilitat": 2877,
      "finala": 2878,
      "François": 2879,
      "Roman": 2880,
      "porta": 2881,
      "Vox": 2882,
      "mèdias": 2883,
      "segonda": 2884,
      "contun": 2885,
      "vidèo": 2886,
      "Immateriau": 2887,
      "adultes": 2888,
      "Etno": 2889,
      "80": 2890,
      "Docu": 2891,
      "IN": 2892,
      "Rob": 2893,
      "XII": 2894,
      "cats": 2895,
      "econ": 2896,
      "ol": 2897,
      "ener": 2898,
      "aur": 2899,
      "audio": 2900,
      "vada": 2901,
      "mieu": 2902,
      "manif": 2903,
      "gant": 2904,
      "Realiz": 2905,
      "ensenhar": 2906,
      "cosina": 2907,
      "origin": 2908,
      "realizada": 2909,
      "berò": 2910,
      "visita": 2911,
      "léger": 2912,
      "article": 2913,
      "produccions": 2914,
      "oficiau": 2915,
      "ISBN": 2916,
      "false": 2917,
      "theme": 2918,
      "vertadièrament": 2919,
      "premsa": 2920,
      "dicod": 2921,
      "Fre": 2922,
      "Fab": 2923,
      "Nai": 2924,
      "Ven": 2925,
      "jau": 2926,
      "mu": 2927,
      "style": 2928,
      "deish": 2929,
      "enveja": 2930,
      "ang": 2931,
      "issen": 2932,
      "élh": 2933,
      "pagina": 2934,
      "paginas": 2935,
      "prob": 2936,
      "estats": 2937,
      "Joja": 2938,
      "Occitans": 2939,
      "corru": 2940,
      "consci": 2941,
      "Miègjorn": 2942,
      "Soci": 2943,
      "bearnesa": 2944,
      "Felip": 2945,
      "Basco": 2946,
      "Chris": 2947,
      "disponible": 2948,
      "particula": 2949,
      "liceans": 2950,
      "Hestiv": 2951,
      "Pèir": 2952,
      "Zo": 2953,
      "bro": 2954,
      "fru": 2955,
      "plò": 2956,
      "devath": 2957,
      "èria": 2958,
      "ertura": 2959,
      "ervatòri": 2960,
      "òmi": 2961,
      "die": 2962,
      "une": 2963,
      "issi": 2964,
      "lici": 2965,
      "letra": 2966,
      "pron": 2967,
      "lhan": 2968,
      "mbis": 2969,
      "ubèrt": 2970,
      "gans": 2971,
      "Conferéncia": 2972,
      "baish": 2973,
      "carga": 2974,
      "socializacion": 2975,
      "còrpus": 2976,
      "classa": 2977,
      "licacions": 2978,
      "possible": 2979,
      "Conservatòri": 2980,
      "45": 2981,
      "Bri": 2982,
      "Cre": 2983,
      "Hal": 2984,
      "Rei": 2985,
      "Vas": 2986,
      "alas": 2987,
      "ape": 2988,
      "but": 2989,
      "jòc": 2990,
      "mna": 2991,
      "nor": 2992,
      "otè": 2993,
      "opera": 2994,
      "rasi": 2995,
      "cii": 2996,
      "ordi": 2997,
      "entrada": 2998,
      "hada": 2999,
      "alista": 3000,
      "vièlha": 3001,
      "occitano": 3002,
      "podè": 3003,
      "ches": 3004,
      "teri": 3005,
      "dur": 3006,
      "umor": 3007,
      "institucion": 3008,
      "garda": 3009,
      "Rou": 3010,
      "numèr": 3011,
      "sauva": 3012,
      "Pastorala": 3013,
      "territori": 3014,
      "medie": 3015,
      "prepausar": 3016,
      "guitar": 3017,
      "Ligams": 3018,
      "rentrada": 3019,
      "Novelum": 3020,
      "idèa": 3021,
      "güers": 3022,
      "RE": 3023,
      "Sé": 3024,
      "estè": 3025,
      "òla": 3026,
      "ditions": 3027,
      "rir": 3028,
      "capi": 3029,
      "lie": 3030,
      "lier": 3031,
      "pertr": 3032,
      "gaire": 3033,
      "peisson": 3034,
      "dó": 3035,
      "còm": 3036,
      "pòs": 3037,
      "Lengadòc": 3038,
      "cort": 3039,
      "Libre": 3040,
      "ròt": 3041,
      "setman": 3042,
      "experiéncia": 3043,
      "avança": 3044,
      "professionau": 3045,
      "President": 3046,
      "tractada": 3047,
      "collabora": 3048,
      "agrada": 3049,
      "comunautat": 3050,
      "avián": 3051,
      "encara": 3052,
      "catalan": 3053,
      "euros": 3054,
      "percussions": 3055,
      "élher": 3056,
      "Por": 3057,
      "Sir": 3058,
      "Véder": 3059,
      "amus": 3060,
      "cm": 3061,
      "doc": 3062,
      "gal": 3063,
      "ique": 3064,
      "sòrt": 3065,
      "uy": 3066,
      "ww": 3067,
      "rapòrt": 3068,
      "ascii": 3069,
      "òmis": 3070,
      "dimars": 3071,
      "lome": 3072,
      "ators": 3073,
      "tomb": 3074,
      "mbor": 3075,
      "projec": 3076,
      "desve": 3077,
      "vers": 3078,
      "Espe": 3079,
      "doas": 3080,
      "exemp": 3081,
      "paur": 3082,
      "lizar": 3083,
      "suc": 3084,
      "castèth": 3085,
      "donar": 3086,
      "jèctes": 3087,
      "hansi": 3088,
      "vòste": 3089,
      "inscripcions": 3090,
      "primièr": 3091,
      "ormal": 3092,
      "Telecargar": 3093,
      "lippe": 3094,
      "partatjar": 3095,
      "Palay": 3096,
      "Varianta": 3097,
      "aplicacion": 3098,
      "París": 3099,
      "Etnopòle": 3100,
      "39": 3101,
      "87": 3102,
      "Avè": 3103,
      "DA": 3104,
      "Sor": 3105,
      "br": 3106,
      "centre": 3107,
      "fà": 3108,
      "fabri": 3109,
      "demò": 3110,
      "estan": 3111,
      "tida": 3112,
      "tits": 3113,
      "tiéner": 3114,
      "usat": 3115,
      "usis": 3116,
      "cambi": 3117,
      "convencion": 3118,
      "tornat": 3119,
      "sola": 3120,
      "accès": 3121,
      "pregon": 3122,
      "previst": 3123,
      "ministèri": 3124,
      "mòtges": 3125,
      "recèr": 3126,
      "lingüistics": 3127,
      "fics": 3128,
      "animacion": 3129,
      "prètz": 3130,
      "document": 3131,
      "bilingua": 3132,
      "equipa": 3133,
      "Wikipèdia": 3134,
      "paraulas": 3135,
      "lomeracion": 3136,
      "978": 3137,
      "Mei": 3138,
      "Mai": 3139,
      "Ob": 3140,
      "Vei": 3141,
      "Xau": 3142,
      "heste": 3143,
      "ian": 3144,
      "imatge": 3145,
      "jats": 3146,
      "dese": 3147,
      "tacions": 3148,
      "augu": 3149,
      "represen": 3150,
      "usse": 3151,
      "pers": 3152,
      "lhon": 3153,
      "gica": 3154,
      "terran": 3155,
      "compaus": 3156,
      "tòl": 3157,
      "carri": 3158,
      "tenat": 3159,
      "interpre": 3160,
      "basca": 3161,
      "elle": 3162,
      "alitats": 3163,
      "començar": 3164,
      "sociau": 3165,
      "cantaires": 3166,
      "laboratòri": 3167,
      "avant": 3168,
      "Titòl": 3169,
      "documentari": 3170,
      "regionalas": 3171,
      "Ani": 3172,
      "Cer": 3173,
      "Eusk": 3174,
      "Lic": 3175,
      "Ros": 3176,
      "af": 3177,
      "hica": 3178,
      "dedins": 3179,
      "rida": 3180,
      "int": 3181,
      "ise": 3182,
      "isser": 3183,
      "tel": 3184,
      "mapa": 3185,
      "èren": 3186,
      "víver": 3187,
      "guida": 3188,
      "guèrra": 3189,
      "òrda": 3190,
      "mena": 3191,
      "formar": 3192,
      "lèisa": 3193,
      "bois": 3194,
      "Arts": 3195,
      "creacions": 3196,
      "concer": 3197,
      "brave": 3198,
      "Biografia": 3199,
      "utilizacion": 3200,
      "particip": 3201,
      "aragon": 3202,
      "partenaris": 3203,
      "poèta": 3204,
      "electron": 3205,
      "yrén": 3206,
      "memòria": 3207,
      "Ensenhar": 3208,
      "manifesta": 3209,
      "desempuish": 3210,
      "AE": 3211,
      "Normal": 3212,
      "Pr": 3213,
      "Prè": 3214,
      "Pyrén": 3215,
      "Ves": 3216,
      "afar": 3217,
      "ef": 3218,
      "fins": 3219,
      "jò": 3220,
      "ón": 3221,
      "uf": 3222,
      "vre": 3223,
      "vut": 3224,
      "esper": 3225,
      "autra": 3226,
      "òmes": 3227,
      "atec": 3228,
      "unas": 3229,
      "ères": 3230,
      "conser": 3231,
      "petit": 3232,
      "descri": 3233,
      "jadas": 3234,
      "ratges": 3235,
      "minutas": 3236,
      "nostes": 3237,
      "Max": 3238,
      "truccion": 3239,
      "Provença": 3240,
      "telefon": 3241,
      "Pagans": 3242,
      "polifonia": 3243,
      "sègles": 3244,
      "sintèsi": 3245,
      "començament": 3246,
      "melho": 3247,
      "demorar": 3248,
      "logias": 3249,
      "Sonda": 3250,
      "istoèra": 3251,
      "companhia": 3252,
      "Besièrs": 3253,
      "Document": 3254,
      "numèro": 3255,
      "82": 3256,
      "CN": 3257,
      "Don": 3258,
      "Flor": 3259,
      "LF": 3260,
      "TA": 3261,
      "Tal": 3262,
      "Tarn": 3263,
      "apro": 3264,
      "blas": 3265,
      "df": 3266,
      "haut": 3267,
      "ig": 3268,
      "lk": 3269,
      "mtemps": 3270,
      "pdf": 3271,
      "zz": 3272,
      "def": 3273,
      "taine": 3274,
      "èp": 3275,
      "cicle": 3276,
      "eria": 3277,
      "ano": 3278,
      "ancians": 3279,
      "dial": 3280,
      "lop": 3281,
      "unes": 3282,
      "usatge": 3283,
      "letras": 3284,
      "seleccion": 3285,
      "vie": 3286,
      "vivar": 3287,
      "traduc": 3288,
      "resp": 3289,
      "vacion": 3290,
      "montan": 3291,
      "minjar": 3292,
      "especia": 3293,
      "Ortès": 3294,
      "granas": 3295,
      "conegut": 3296,
      "Didier": 3297,
      "persona": 3298,
      "cromp": 3299,
      "participacion": 3300,
      "articles": 3301,
      "Pense": 3302,
      "darrièr": 3303,
      "aulhors": 3304,
      "locutors": 3305,
      "Pyréné": 3306,
      "*...": 3307,
      "Aquò": 3308,
      "Mat": 3309,
      "Pre": 3310,
      "cèra": 3311,
      "clar": 3312,
      "emission": 3313,
      "eissa": 3314,
      "gos": 3315,
      "ita": 3316,
      "ys": 3317,
      "asp": 3318,
      "analis": 3319,
      "relacion": 3320,
      "rie": 3321,
      "carac": 3322,
      "libri": 3323,
      "ée": 3324,
      "parçan": 3325,
      "peissons": 3326,
      "vertat": 3327,
      "ubèrtas": 3328,
      "terren": 3329,
      "dèra": 3330,
      "Cala": 3331,
      "missions": 3332,
      "intervien": 3333,
      "politicas": 3334,
      "bulari": 3335,
      "participè": 3336,
      "mercat": 3337,
      "Passa": 3338,
      "2009": 3339,
      "Mustra": 3340,
      "variantas": 3341,
      "patrimoni": 3342,
      "Linguatec": 3343,
      "aperitiu": 3344,
      "Philippe": 3345,
      "corruda": 3346,
      "Senta": 3347,
      "ela": 3348,
      "fè": 3349,
      "gatge": 3350,
      "lt": 3351,
      "ok": 3352,
      "archius": 3353,
      "anon": 3354,
      "autras": 3355,
      "repor": 3356,
      "timent": 3357,
      "influ": 3358,
      "cou": 3359,
      "entra": 3360,
      "leu": 3361,
      "trar": 3362,
      "sopa": 3363,
      "2010": 3364,
      "vadut": 3365,
      "Lavit": 3366,
      "disposi": 3367,
      "gras": 3368,
      "urg": 3369,
      "obratges": 3370,
      "Perqué": 3371,
      "joen": 3372,
      "plata": 3373,
      "gó": 3374,
      "titucions": 3375,
      "escambis": 3376,
      "desvolopa": 3377,
      "ÒCtele": 3378,
      "polifonic": 3379,
      "vertadèr": 3380,
      "istoric": 3381,
      "volucion": 3382,
      "pluèja": 3383,
      "Internet": 3384,
      "Academia": 3385,
      "Chapdu": 3386,
      "reflex": 3387,
      "trajectòria": 3388,
      "occitanofò": 3389,
      "perspec": 3390,
      "Ada": 3391,
      "Cal": 3392,
      "Cant": 3393,
      "Uei": 3394,
      "amis": 3395,
      "ctor": 3396,
      "ë": 3397,
      "irà": 3398,
      "ll": 3399,
      "lla": 3400,
      "udi": 3401,
      "́lia": 3402,
      "esas": 3403,
      "aure": 3404,
      "reda": 3405,
      "tias": 3406,
      "tuau": 3407,
      "osas": 3408,
      "provis": 3409,
      "aima": 3410,
      "Espi": 3411,
      "complet": 3412,
      "botar": 3413,
      "eux": 3414,
      "Republica": 3415,
      "tribalhar": 3416,
      "barre": 3417,
      "mentacion": 3418,
      "çard": 3419,
      "construccion": 3420,
      "univèrs": 3421,
      "espan": 3422,
      "quauquas": 3423,
      "fotogra": 3424,
      "explo": 3425,
      "generala": 3426,
      "plaser": 3427,
      "important": 3428,
      "Crestian": 3429,
      "elegits": 3430,
      "testimò": 3431,
      "composicions": 3432,
      "vocabulari": 3433,
      "Guilhem": 3434,
      "energia": 3435,
      "projeccions": 3436,
      "35": 3437,
      "Gros": 3438,
      "Set": 3439,
      "Ve": 3440,
      "Vos": 3441,
      "bau": 3442,
      "cur": 3443,
      "gs": 3444,
      "delà": 3445,
      "onha": 3446,
      "tax": 3447,
      "laras": 3448,
      "ciar": 3449,
      "ann": 3450,
      "congrès": 3451,
      "melo": 3452,
      "rant": 3453,
      "podes": 3454,
      "vali": 3455,
      "gir": 3456,
      "pap": 3457,
      "òrts": 3458,
      "land": 3459,
      "mós": 3460,
      "mobi": 3461,
      "vol": 3462,
      "trob": 3463,
      "recru": 3464,
      "tissatge": 3465,
      "Semb": 3466,
      "sosten": 3467,
      "constitu": 3468,
      "cinèma": 3469,
      "espanh": 3470,
      "ènh": 3471,
      "polifonias": 3472,
      "melhor": 3473,
      "doblat": 3474,
      "guarda": 3475,
      "cooperacion": 3476,
      "fàcia": 3477,
      "Ce": 3478,
      "Gon": 3479,
      "Jos": 3480,
      "Sal": 3481,
      "UN": 3482,
      "Va": 3483,
      "aga": 3484,
      "ck": 3485,
      "clan": 3486,
      "gau": 3487,
      "mm": 3488,
      "defini": 3489,
      "quatre": 3490,
      "annau": 3491,
      "autan": 3492,
      "auvern": 3493,
      "ordin": 3494,
      "òria": 3495,
      "lix": 3496,
      "liura": 3497,
      "libes": 3498,
      "tologia": 3499,
      "media": 3500,
      "aussa": 3501,
      "tatz": 3502,
      "póner": 3503,
      "pet": 3504,
      "ciacion": 3505,
      "termin": 3506,
      "gratis": 3507,
      "Auvèrn": 3508,
      "jut": 3509,
      "Inven": 3510,
      "chamn": 3511,
      "bastir": 3512,
      "jornau": 3513,
      "escriut": 3514,
      "Dimenge": 3515,
      "arribar": 3516,
      "làs": 3517,
      "foguèt": 3518,
      "fantas": 3519,
      "Merca": 3520,
      "actuaus": 3521,
      "Simin": 3522,
      "alismes": 3523,
      "utilizar": 3524,
      "logica": 3525,
      "pairs": 3526,
      "Acce": 3527,
      "aquitan": 3528,
      "interess": 3529,
      "afars": 3530,
      "vivaro": 3531,
      "Cul": 3532,
      "Cab": 3533,
      "Jòr": 3534,
      "Sen": 3535,
      "Seu": 3536,
      "hromatge": 3537,
      "ü": 3538,
      "departament": 3539,
      "enténer": 3540,
      "realitat": 3541,
      "rica": 3542,
      "cologia": 3543,
      "tradicions": 3544,
      "ián": 3545,
      "lhèu": 3546,
      "produ": 3547,
      "activitat": 3548,
      "prepa": 3549,
      "vera": 3550,
      "Estiu": 3551,
      "mescla": 3552,
      "mocions": 3553,
      "vole": 3554,
      "nomb": 3555,
      "extra": 3556,
      "book": 3557,
      "Paul": 3558,
      "alias": 3559,
      "mainat": 3560,
      "gramatica": 3561,
      "Master": 3562,
      "acaba": 3563,
      "sòus": 3564,
      "sòcis": 3565,
      "inscríver": 3566,
      "servicis": 3567,
      "varietats": 3568,
      "Totun": 3569,
      "aprentissatge": 3570,
      "comunicacions": 3571,
      "sortida": 3572,
      "Companh": 3573,
      "encargat": 3574,
      "continu": 3575,
      "Andrieu": 3576,
      "dossièr": 3577,
      "otèca": 3578,
      "ròtle": 3579,
      "Ab": 3580,
      "DF": 3581,
      "Daus": 3582,
      "Fi": 3583,
      "LL": 3584,
      "Mistra": 3585,
      "Ron": 3586,
      "Ric": 3587,
      "Sam": 3588,
      "cut": 3589,
      "dari": 3590,
      "eda": 3591,
      "mons": 3592,
      "nen": 3593,
      "pescha": 3594,
      "vats": 3595,
      "dex": 3596,
      "assis": 3597,
      "ausi": 3598,
      "dimen": 3599,
      "camb": 3600,
      "ligason": 3601,
      "cós": 3602,
      "sap": 3603,
      "convida": 3604,
      "gueta": 3605,
      "mete": 3606,
      "passada": 3607,
      "ausas": 3608,
      "sora": 3609,
      "prote": 3610,
      "promocion": 3611,
      "grafic": 3612,
      "line": 3613,
      "exis": 3614,
      "Artu": 3615,
      "institucions": 3616,
      "Lengas": 3617,
      "Del": 3618,
      "aviada": 3619,
      "presentarà": 3620,
      "claude": 3621,
      "tionna": 3622,
      "granda": 3623,
      "sauts": 3624,
      "Trans": 3625,
      "vienen": 3626,
      "nacionala": 3627,
      "Luci": 3628,
      "arreviradas": 3629,
      "goria": 3630,
      "eths": 3631,
      "Grand": 3632,
      "tractament": 3633,
      "crotz": 3634,
      "Juli": 3635,
      "Pançard": 3636,
      "labèrt": 3637,
      "qualques": 3638,
      "Gilabèrt": 3639,
      "operators": 3640,
      "medievau": 3641,
      "Prèmi": 3642,
      "reportatge": 3643,
      "Grosclaude": 3644,
      "Setmana": 3645,
      "Mistral": 3646,
      "0cm": 3647,
      "Bran": 3648,
      "Tri": 3649,
      "cli": 3650,
      "cte": 3651,
      "gori": 3652,
      "̂te": 3653,
      "depu": 3654,
      "tab": 3655,
      "rava": 3656,
      "dits": 3657,
      "tine": 3658,
      "ing": 3659,
      "cala": 3660,
      "lit": 3661,
      "libra": 3662,
      "sal": 3663,
      "perdut": 3664,
      "secre": 3665,
      "quilhs": 3666,
      "respóner": 3667,
      "rou": 3668,
      "èstra": 3669,
      "profi": 3670,
      "chs": 3671,
      "lanç": 3672,
      "actes": 3673,
      "Esp": 3674,
      "sustot": 3675,
      "musa": 3676,
      "dèmia": 3677,
      "Catal": 3678,
      "matèria": 3679,
      "gene": 3680,
      "editar": 3681,
      "aplicacions": 3682,
      "avèm": 3683,
      "Universi": 3684,
      "sociaus": 3685,
      "vòstre": 3686,
      "prèp": 3687,
      "servir": 3688,
      "tematicas": 3689,
      "etnomusi": 3690,
      "COMDT": 3691,
      "vilatges": 3692,
      "culture": 3693,
      "labèl": 3694,
      "toponimia": 3695,
      "acostu": 3696,
      "Mediatèca": 3697,
      "Escrivans": 3698,
      "destinacion": 3699,
      "Departamentau": 3700,
      "Alain": 3701,
      "podiá": 3702,
      "Halha": 3703,
      "esperit": 3704,
      "Josu": 3705,
      "Ge": 3706,
      "PDF": 3707,
      "Sur": 3708,
      "evi": 3709,
      "mic": 3710,
      "rèias": 3711,
      "deracion": 3712,
      "tad": 3713,
      "autant": 3714,
      "ògue": 3715,
      "tiz": 3716,
      "invi": 3717,
      "uscri": 3718,
      "colo": 3719,
      "será": 3720,
      "vio": 3721,
      "vir": 3722,
      "mejan": 3723,
      "lhè": 3724,
      "lengatge": 3725,
      "và": 3726,
      "manuscri": 3727,
      "lança": 3728,
      "exposicion": 3729,
      "minori": 3730,
      "publican": 3731,
      "bó": 3732,
      "marca": 3733,
      "Tousis": 3734,
      "lhaires": 3735,
      "correspon": 3736,
      "Marc": 3737,
      "Asson": 3738,
      "penc": 3739,
      "Gascona": 3740,
      "Montanha": 3741,
      "Mamà": 3742,
      "tròba": 3743,
      "Mej": 3744,
      "culh": 3745,
      "practic": 3746,
      "còrs": 3747,
      "actuau": 3748,
      "prepausan": 3749,
      "prepausat": 3750,
      "pòrts": 3751,
      "Duo": 3752,
      "Manci": 3753,
      "Serena": 3754,
      "enfants": 3755,
      "purmèra": 3756,
      "Realizator": 3757,
      "guitarra": 3758,
      "Companhia": 3759,
      "Ay": 3760,
      "Dire": 3761,
      "Desco": 3762,
      "Hue": 3763,
      "US": 3764,
      "ey": 3765,
      "galh": 3766,
      "kid": 3767,
      "maus": 3768,
      "roc": 3769,
      "uòus": 3770,
      "enc": 3771,
      "enfin": 3772,
      "esqu": 3773,
      "auriá": 3774,
      "inc": 3775,
      "ino": 3776,
      "limi": 3777,
      "conf": 3778,
      "toponi": 3779,
      "tatges": 3780,
      "çac": 3781,
      "versa": 3782,
      "modè": 3783,
      "jamei": 3784,
      "escuda": 3785,
      "badie": 3786,
      "frança": 3787,
      "faguèt": 3788,
      "Cada": 3789,
      "Art": 3790,
      "genre": 3791,
      "197": 3792,
      "associatiu": 3793,
      "Divés": 3794,
      "mentaus": 3795,
      "Tralhaires": 3796,
      "realizacion": 3797,
      "làlia": 3798,
      "demandar": 3799,
      "amassadas": 3800,
      "mètres": 3801,
      "Canic": 3802,
      "inscripcion": 3803,
      "alistas": 3804,
      "Eulàlia": 3805,
      "Perigüers": 3806,
      "bilinguas": 3807,
      "Vincen": 3808,
      "dròlles": 3809,
      "passejada": 3810,
      "automatic": 3811,
      "categori": 3812,
      "tecnologias": 3813,
      "benefici": 3814,
      "Societat": 3815,
      "pronon": 3816,
      "recèrcas": 3817,
      "Artús": 3818,
      "tionnaire": 3819,
      "Manciet": 3820,
      "Coc": 3821,
      "Emi": 3822,
      "Far": 3823,
      "Ga": 3824,
      "Heste": 3825,
      "Ten": 3826,
      "Tan": 3827,
      "ajus": 3828,
      "bur": 3829,
      "bèth": 3830,
      "dro": 3831,
      "eishen": 3832,
      "hu": 3833,
      "patrimònis": 3834,
      "debat": 3835,
      "rati": 3836,
      "aü": 3837,
      "top": 3838,
      "quicòm": 3839,
      "sites": 3840,
      "trada": 3841,
      "gudas": 3842,
      "metre": 3843,
      "pastora": 3844,
      "gièr": 3845,
      "mias": 3846,
      "promò": 3847,
      "dessús": 3848,
      "langue": 3849,
      "prés": 3850,
      "negre": 3851,
      "fias": 3852,
      "collegi": 3853,
      "pòdon": 3854,
      "finança": 3855,
      "politic": 3856,
      "Biger": 3857,
      "escriu": 3858,
      "versions": 3859,
      "Montan": 3860,
      "vòts": 3861,
      "elements": 3862,
      "territòris": 3863,
      "2003": 3864,
      "2005": 3865,
      "permete": 3866,
      "sancèra": 3867,
      "arrevirat": 3868,
      "autona": 3869,
      "sián": 3870,
      "començarà": 3871,
      "nòstre": 3872,
      "anciana": 3873,
      "illustracions": 3874,
      "solide": 3875,
      "Louis": 3876,
      "avó": 3877,
      "anglés": 3878,
      "Christian": 3879,
      "Josuèr": 3880,
      "categorias": 3881,
      "Bigerri": 3882,
      "63": 3883,
      "Az": 3884,
      "aper": 3885,
      "bis": 3886,
      "bats": 3887,
      "ions": 3888,
      "́cia": 3889,
      "tambor": 3890,
      "ausa": 3891,
      "inaugu": 3892,
      "siu": 3893,
      "size": 3894,
      "tua": 3895,
      "gadas": 3896,
      "parents": 3897,
      "vacan": 3898,
      "proposicions": 3899,
      "disposicion": 3900,
      "messatge": 3901,
      "aquelas": 3902,
      "monia": 3903,
      "èits": 3904,
      "lizat": 3905,
      "viste": 3906,
      "entacion": 3907,
      "trin": 3908,
      "òssa": 3909,
      "intervencions": 3910,
      "tisses": 3911,
      "lingüisme": 3912,
      "ctacle": 3913,
      "Roux": 3914,
      "Carles": 3915,
      "vòle": 3916,
      "mentari": 3917,
      "professora": 3918,
      "lòt": 3919,
      "Petit": 3920,
      "Pamp": 3921,
      "prèmis": 3922,
      "responsa": 3923,
      "000s": 3924,
      "collècta": 3925,
      "futur": 3926,
      "guier": 3927,
      "camins": 3928,
      "dedicada": 3929,
      "punts": 3930,
      "disponibles": 3931,
      "CFPO": 3932,
      "bòscs": 3933,
      "bèstia": 3934,
      "Direccion": 3935,
      "vacanças": 3936,
      "100": 3937,
      "Brana": 3938,
      "CR": 3939,
      "CRD": 3940,
      "Salias": 3941,
      "eas": 3942,
      "gèrs": 3943,
      "glèisa": 3944,
      "zal": 3945,
      "dena": 3946,
      "detalh": 3947,
      "onte": 3948,
      "talha": 3949,
      "tina": 3950,
      "tilh": 3951,
      "data": 3952,
      "calh": 3953,
      "teish": 3954,
      "conju": 3955,
      "conten": 3956,
      "quilo": 3957,
      "quilhas": 3958,
      "éisser": 3959,
      "metu": 3960,
      "nson": 3961,
      "pada": 3962,
      "miar": 3963,
      "tza": 3964,
      "tze": 3965,
      "venguda": 3966,
      "obertura": 3967,
      "casa": 3968,
      "èctes": 3969,
      "estadas": 3970,
      "Occitanica": 3971,
      "Biu": 3972,
      "empa": 3973,
      "costu": 3974,
      "numericas": 3975,
      "tèrmis": 3976,
      "Parc": 3977,
      "hèita": 3978,
      "bert": 3979,
      "mediatèca": 3980,
      "polifonics": 3981,
      "semblava": 3982,
      "Peitau": 3983,
      "avetz": 3984,
      "Aquesta": 3985,
      "Laurent": 3986,
      "produsit": 3987,
      "dròlle": 3988,
      "logic": 3989,
      "Brun": 3990,
      "rosament": 3991,
      "bèstias": 3992,
      "Aragon": 3993,
      "dessenh": 3994,
      "organisme": 3995,
      "solelh": 3996,
      "Séguier": 3997,
      "Hestejada": 3998,
      "67": 3999,
      "Fer": 4000,
      "Ho": 4001,
      "Il": 4002,
      "Jura": 4003,
      "Pel": 4004,
      "Puish": 4005,
      "UP": 4006,
      "XV": 4007,
      "bèl": 4008,
      "baud": 4009,
      "efi": 4010,
      "frot": 4011,
      "grà": 4012,
      "iar": 4013,
      "iri": 4014,
      "uèlhs": 4015,
      "zi": 4016,
      "demiei": 4017,
      "enòr": 4018,
      "enradi": 4019,
      "ram": 4020,
      "cièr": 4021,
      "anhar": 4022,
      "informa": 4023,
      "cadas": 4024,
      "lir": 4025,
      "cora": 4026,
      "contèxte": 4027,
      "prumi": 4028,
      "tom": 4029,
      "altas": 4030,
      "gàs": 4031,
      "trad": 4032,
      "gua": 4033,
      "solu": 4034,
      "gier": 4035,
      "Labo": 4036,
      "mani": 4037,
      "disnar": 4038,
      "ÒcTele": 4039,
      "mina": 4040,
      "bolè": 4041,
      "carta": 4042,
      "tropo": 4043,
      "hemnas": 4044,
      "jós": 4045,
      "rard": 4046,
      "longa": 4047,
      "catz": 4048,
      "numerics": 4049,
      "demande": 4050,
      "lengadociana": 4051,
      "cere": 4052,
      "cercaires": 4053,
      "subre": 4054,
      "Basic": 4055,
      "Claude": 4056,
      "drin": 4057,
      "CIRDOC": 4058,
      "III": 4059,
      "pensat": 4060,
      "decision": 4061,
      "quadre": 4062,
      "encontrar": 4063,
      "Morla": 4064,
      "departaments": 4065,
      "còsta": 4066,
      "Agenda": 4067,
      "Agéncia": 4068,
      "administracion": 4069,
      "revealtas": 4070,
      "Espectacle": 4071,
      "Sondaqui": 4072,
      "reflexion": 4073,
      "ël": 4074,
      "Inventari": 4075,
      "Canicula": 4076,
      "Vincenç": 4077,
      "Pampali": 4078,
      "revealtaste": 4079,
      "Cro": 4080,
      "Har": 4081,
      "Lei": 4082,
      "Nacion": 4083,
      "Pla": 4084,
      "San": 4085,
      "Sès": 4086,
      "atal": 4087,
      "cres": 4088,
      "dy": 4089,
      "edu": 4090,
      "emocions": 4091,
      "flor": 4092,
      "hes": 4093,
      "pès": 4094,
      "pir": 4095,
      "sistè": 4096,
      "udio": 4097,
      "xe": 4098,
      "tala": 4099,
      "espè": 4100,
      "cir": 4101,
      "auts": 4102,
      "reta": 4103,
      "òl": 4104,
      "diu": 4105,
      "tipe": 4106,
      "istas": 4107,
      "tet": 4108,
      "entrar": 4109,
      "pertoc": 4110,
      "vier": 4111,
      "iada": 4112,
      "respec": 4113,
      "sona": 4114,
      "èsse": 4115,
      "2011": 4116,
      "desser": 4117,
      "lant": 4118,
      "neu": 4119,
      "èiras": 4120,
      "escas": 4121,
      "figu": 4122,
      "publicas": 4123,
      "onada": 4124,
      "dret": 4125,
      "matges": 4126,
      "lhac": 4127,
      "poderàn": 4128,
      "amic": 4129,
      "Marmanda": 4130,
      "senha": 4131,
      "Bida": 4132,
      "passatge": 4133,
      "tivament": 4134,
      "personatges": 4135,
      "demandè": 4136,
      "lexics": 4137,
      "Miei": 4138,
      "Pey": 4139,
      "famili": 4140,
      "actualitat": 4141,
      "valorizar": 4142,
      "signi": 4143,
      "populara": 4144,
      "illustrat": 4145,
      "causida": 4146,
      "Sabe": 4147,
      "abordada": 4148,
      "Primtemps": 4149,
      "cronicas": 4150,
      "obligat": 4151,
      "Çò": 4152,
      "accedir": 4153,
      "podriá": 4154,
      "endrech": 4155,
      "melhorar": 4156,
      "Talvera": 4157,
      "Auvèrnha": 4158,
      "voletz": 4159,
      "nenet": 4160,
      "bolègan": 4161,
      "75": 4162,
      "Bé": 4163,
      "Em": 4164,
      "Fon": 4165,
      "Ger": 4166,
      "Sy": 4167,
      "Trò": 4168,
      "Vòle": 4169,
      "bèrt": 4170,
      "dres": 4171,
      "etas": 4172,
      "fèsta": 4173,
      "deth": 4174,
      "èti": 4175,
      "estre": 4176,
      "eslhè": 4177,
      "arne": 4178,
      "òna": 4179,
      "dific": 4180,
      "dition": 4181,
      "dacion": 4182,
      "use": 4183,
      "lièr": 4184,
      "libres": 4185,
      "enten": 4186,
      "seminari": 4187,
      "trac": 4188,
      "guí": 4189,
      "parièr": 4190,
      "progra": 4191,
      "chaud": 4192,
      "ganhat": 4193,
      "prece": 4194,
      "aqueles": 4195,
      "mono": 4196,
      "minis": 4197,
      "Cami": 4198,
      "juèc": 4199,
      "Informacions": 4200,
      "lutz": 4201,
      "tribalha": 4202,
      "recèp": 4203,
      "editat": 4204,
      "Romieu": 4205,
      "claus": 4206,
      "grands": 4207,
      "començ": 4208,
      "numeriz": 4209,
      "Parlar": 4210,
      "Profes": 4211,
      "2008": 4212,
      "Boha": 4213,
      "borrèias": 4214,
      "Version": 4215,
      "suls": 4216,
      "experimentau": 4217,
      "varietat": 4218,
      "longtemps": 4219,
      "Patrici": 4220,
      "Teledescargar": 4221,
      "Dictionnaire": 4222,
      "fasiá": 4223,
      "besonhs": 4224,
      "europèu": 4225,
      "particu": 4226,
      "enfança": 4227,
      "econo": 4228,
      "problè": 4229,
      "pertrèit": 4230,
      "demòra": 4231,
      "compausat": 4232,
      "CNRS": 4233,
      "Gonzal": 4234,
      "Accedir": 4235,
      "Catalonha": 4236,
      "Cocanha": 4237,
      "Juranson": 4238,
      "Pampalí": 4239,
      "68": 4240,
      ";}": 4241,
      "AT": 4242,
      "Aó": 4243,
      "Dia": 4244,
      "Fè": 4245,
      "GB": 4246,
      "Gai": 4247,
      "Lé": 4248,
      "Oli": 4249,
      "ata": 4250,
      "dub": 4251,
      "datge": 4252,
      "ka": 4253,
      "ko": 4254,
      "uèlh": 4255,
      "deric": 4256,
      "quali": 4257,
      "cien": 4258,
      "recomp": 4259,
      "diguèt": 4260,
      "tira": 4261,
      "lièch": 4262,
      "tex": 4263,
      "sag": 4264,
      "èst": 4265,
      "àudio": 4266,
      "mir": 4267,
      "menatge": 4268,
      "icacion": 4269,
      "predic": 4270,
      "ishe": 4271,
      "Concors": 4272,
      "compli": 4273,
      "publicar": 4274,
      "onament": 4275,
      "caret": 4276,
      "Rec": 4277,
      "pita": 4278,
      "trib": 4279,
      "donat": 4280,
      "organizar": 4281,
      "prigon": 4282,
      "hasón": 4283,
      "portat": 4284,
      "mentaris": 4285,
      "collectiva": 4286,
      "Projeccion": 4287,
      "romans": 4288,
      "academia": 4289,
      "mediacion": 4290,
      "classas": 4291,
      "collègis": 4292,
      "musician": 4293,
      "primièra": 4294,
      "enregistrament": 4295,
      "enregistraments": 4296,
      "legir": 4297,
      "petita": 4298,
      "categoria": 4299,
      "ortografic": 4300,
      "conside": 4301,
      "destinat": 4302,
      "Frederic": 4303,
      "Vasats": 4304,
      "territoriaus": 4305,
      "influéncias": 4306,
      "Chapduelh": 4307,
      "Sembla": 4308,
      "auvernhat": 4309,
      "Descobri": 4310,
      "eslhèves": 4311,
      "Cai": 4312,
      "Dus": 4313,
      "Edat": 4314,
      "Sar": 4315,
      "Shens": 4316,
      "aja": 4317,
      "apè": 4318,
      "bé": 4319,
      "clo": 4320,
      "cents": 4321,
      "idas": 4322,
      "nueit": 4323,
      "sat": 4324,
      "dever": 4325,
      "raus": 4326,
      "cip": 4327,
      "antropo": 4328,
      "rem": 4329,
      "reli": 4330,
      "redona": 4331,
      "ditadas": 4332,
      "tif": 4333,
      "indis": 4334,
      "capaci": 4335,
      "sà": 4336,
      "viva": 4337,
      "deuriá": 4338,
      "gacion": 4339,
      "trabalhar": 4340,
      "reser": 4341,
      "sonòr": 4342,
      "mbar": 4343,
      "gelar": 4344,
      "Òlt": 4345,
      "prevista": 4346,
      "distància": 4347,
      "aime": 4348,
      "Esqui": 4349,
      "grat": 4350,
      "presents": 4351,
      "Aups": 4352,
      "sud": 4353,
      "caste": 4354,
      "marcha": 4355,
      "carla": 4356,
      "In8": 4357,
      "chal": 4358,
      "dialec": 4359,
      "doncas": 4360,
      "Leon": 4361,
      "Joh": 4362,
      "corts": 4363,
      "pensi": 4364,
      "pensab": 4365,
      "clavèr": 4366,
      "escambi": 4367,
      "pèça": 4368,
      "prumèras": 4369,
      "coneissen": 4370,
      "naut": 4371,
      "sauvat": 4372,
      "Mascaret": 4373,
      "bonas": 4374,
      "aquestas": 4375,
      "nivèus": 4376,
      "driàs": 4377,
      "ACPA": 4378,
      "generacions": 4379,
      "visuaus": 4380,
      "mantun": 4381,
      "pluri": 4382,
      "Pendent": 4383,
      "adaptacion": 4384,
      "Istòria": 4385,
      "Breç": 4386,
      "consultar": 4387,
      "bruch": 4388,
      "immersion": 4389,
      "liberet": 4390,
      "beròi": 4391,
      "sauvaguarda": 4392,
      "DAAC": 4393,
      "Licèu": 4394,
      "aragonés": 4395,
      "Calams": 4396,
      "Emília": 4397,
      "collegians": 4398,
      "Mieidia": 4399,
      "Aub": 4400,
      "Hera": 4401,
      "Ieu": 4402,
      "Men": 4403,
      "Mal": 4404,
      "Mire": 4405,
      "Pèr": 4406,
      "Wil": 4407,
      "adi": 4408,
      "apres": 4409,
      "cèrt": 4410,
      "eti": 4411,
      "efica": 4412,
      "epis": 4413,
      "mèt": 4414,
      "mòrt": 4415,
      "nòr": 4416,
      "norma": 4417,
      "nòtas": 4418,
      "ror": 4419,
      "sari": 4420,
      "deve": 4421,
      "devien": 4422,
      "degun": 4423,
      "quora": 4424,
      "escon": 4425,
      "argent": 4426,
      "òts": 4427,
      "dida": 4428,
      "pertot": 4429,
      "condicions": 4430,
      "torat": 4431,
      "guer": 4432,
      "rom": 4433,
      "ranta": 4434,
      "passion": 4435,
      "miélher": 4436,
      "desbro": 4437,
      "cho": 4438,
      "cantar": 4439,
      "grad": 4440,
      "presiden": 4441,
      "moine": 4442,
      "jazz": 4443,
      "Convencion": 4444,
      "celè": 4445,
      "Aquitaine": 4446,
      "dents": 4447,
      "obser": 4448,
      "segurament": 4449,
      "fareas": 4450,
      "improvis": 4451,
      "fichas": 4452,
      "corr": 4453,
      "corre": 4454,
      "ambe": 4455,
      "Aspa": 4456,
      "maine": 4457,
      "avètz": 4458,
      "Aqueths": 4459,
      "hiu": 4460,
      "aquestes": 4461,
      "animarà": 4462,
      "hèitas": 4463,
      "cerca": 4464,
      "polifonica": 4465,
      "mort": 4466,
      "sancèr": 4467,
      "visitas": 4468,
      "escolara": 4469,
      "gordan": 4470,
      "Wikim": 4471,
      "contenta": 4472,
      "pedagogica": 4473,
      "Trobar": 4474,
      "idea": 4475,
      "idéncia": 4476,
      "mantuns": 4477,
      "simple": 4478,
      "estranh": 4479,
      "comandar": 4480,
      "Quinz": 4481,
      "paraula": 4482,
      "assegurar": 4483,
      "acompanhat": 4484,
      "enriqui": 4485,
      "literàrias": 4486,
      "Siròs": 4487,
      "uyar": 4488,
      "participants": 4489,
      "Culture": 4490,
      "Mejana": 4491,
      "français": 4492,
      "Illustra": 4493,
      "indispensab": 4494,
      "episò": 4495,
      "fareast": 4496,
      "66": 4497,
      "Amb": 4498,
      "Bu": 4499,
      "CA": 4500,
      "Cau": 4501,
      "Er": 4502,
      "Gra": 4503,
      "Gil": 4504,
      "Haut": 4505,
      "Hautas": 4506,
      "Nat": 4507,
      "Sil": 4508,
      "Uti": 4509,
      "bons": 4510,
      "bèla": 4511,
      "hòra": 4512,
      "lisme": 4513,
      "oncle": 4514,
      "taul": 4515,
      "lach": 4516,
      "raub": 4517,
      "quo": 4518,
      "quina": 4519,
      "arres": 4520,
      "locau": 4521,
      "aten": 4522,
      "inten": 4523,
      "mala": 4524,
      "lemos": 4525,
      "sera": 4526,
      "vira": 4527,
      "vice": 4528,
      "navi": 4529,
      "iàs": 4530,
      "ules": 4531,
      "ària": 4532,
      "mièg": 4533,
      "menar": 4534,
      "teret": 4535,
      "previs": 4536,
      "vendre": 4537,
      "voliá": 4538,
      "cepcion": 4539,
      "Aquí": 4540,
      "serif": 4541,
      "obri": 4542,
      "margin": 4543,
      "bilingü": 4544,
      "jugar": 4545,
      "internet": 4546,
      "Segu": 4547,
      "poderà": 4548,
      "priori": 4549,
      "gardar": 4550,
      "escrivans": 4551,
      "vòl": 4552,
      "arribat": 4553,
      "constitucion": 4554,
      "Pojada": 4555,
      "dançaires": 4556,
      "tribalhs": 4557,
      "programacion": 4558,
      "Casteret": 4559,
      "vòstra": 4560,
      "borsa": 4561,
      "suber": 4562,
      "filmats": 4563,
      "vint": 4564,
      "direccion": 4565,
      "explica": 4566,
      "pensas": 4567,
      "Despuish": 4568,
      "melhora": 4569,
      "passacarrèra": 4570,
      "osament": 4571,
      "ïs": 4572,
      "engatjament": 4573,
      "europèa": 4574,
      "abitants": 4575,
      "automatica": 4576,
      "accep": 4577,
      "pedagogic": 4578,
      "ciutat": 4579,
      "linguistica": 4580,
      "Encontres": 4581,
      "electronica": 4582,
      "terrenh": 4583,
      "recruta": 4584,
      "CRDP": 4585,
      "Camille": 4586,
      "314": 4587,
      "81": 4588,
      "Elh": 4589,
      "Prat": 4590,
      "Tre": 4591,
      "Table": 4592,
      "Vis": 4593,
      "lli": 4594,
      "rub": 4595,
      "tria": 4596,
      "vents": 4597,
      "deven": 4598,
      "enci": 4599,
      "onze": 4600,
      "taires": 4601,
      "ladas": 4602,
      "quatau": 4603,
      "auh": 4604,
      "tirat": 4605,
      "locon": 4606,
      "cab": 4607,
      "entradas": 4608,
      "malais": 4609,
      "sian": 4610,
      "échal": 4611,
      "occitane": 4612,
      "metra": 4613,
      "metò": 4614,
      "parte": 4615,
      "gièrs": 4616,
      "projeccion": 4617,
      "geografia": 4618,
      "ganhar": 4619,
      "Esco": 4620,
      "moments": 4621,
      "queste": 4622,
      "seré": 4623,
      "seriá": 4624,
      "entament": 4625,
      "esperar": 4626,
      "internacion": 4627,
      "Sebas": 4628,
      "Seminari": 4629,
      "Marcel": 4630,
      "sente": 4631,
      "escríver": 4632,
      "Caro": 4633,
      "Carta": 4634,
      "Limòtges": 4635,
      "Culturas": 4636,
      "vòsta": 4637,
      "acompanhar": 4638,
      "anava": 4639,
      "Resso": 4640,
      "session": 4641,
      "subjècte": 4642,
      "licèus": 4643,
      "centrau": 4644,
      "pòrtas": 4645,
      "Calandretas": 4646,
      "Claudi": 4647,
      "Simon": 4648,
      "ENS": 4649,
      "mieidia": 4650,
      "Europ": 4651,
      "culte": 4652,
      "contribucion": 4653,
      "TEM": 4654,
      "petits": 4655,
      "vidèos": 4656,
      "Crese": 4657,
      "Sospir": 4658,
      "Còrdas": 4659,
      "legacion": 4660,
      "resultat": 4661,
      "Comunicacion": 4662,
      "legendas": 4663,
      "volontat": 4664,
      "existeish": 4665,
      "consciéncia": 4666,
      "Donc": 4667,
      "crompar": 4668,
      "dispositiu": 4669,
      "testimònis": 4670,
      "cambia": 4671,
      "Espanha": 4672,
      "promòver": 4673,
      "sistèma": 4674,
      "Elhuyar": 4675,
      "locongres": 4676,
      "\";": 4677,
      "53": 4678,
      "Bla": 4679,
      "CAP": 4680,
      "Dà": 4681,
      "Emp": 4682,
      "Henri": 4683,
      "Mmm": 4684,
      "Nueit": 4685,
      "Sant": 4686,
      "Talh": 4687,
      "Xarne": 4688,
      "aprò": 4689,
      "clin": 4690,
      "cèu": 4691,
      "ff": 4692,
      "gla": 4693,
      "lub": 4694,
      "muni": 4695,
      "og": 4696,
      "ph": 4697,
      "règ": 4698,
      "sèr": 4699,
      "uas": 4700,
      "urau": 4701,
      "lac": 4702,
      "est": 4703,
      "civi": 4704,
      "argu": 4705,
      "anas": 4706,
      "reconeishença": 4707,
      "tive": 4708,
      "lou": 4709,
      "aty": 4710,
      "cara": 4711,
      "calen": 4712,
      "conse": 4713,
      "seccion": 4714,
      "vide": 4715,
      "trapar": 4716,
      "traductor": 4717,
      "lena": 4718,
      "Lagarda": 4719,
      "mandar": 4720,
      "doç": 4721,
      "nitat": 4722,
      "cedex": 4723,
      "tòs": 4724,
      "lèva": 4725,
      "objèctes": 4726,
      "franco": 4727,
      "bel": 4728,
      "plantar": 4729,
      "Anne": 4730,
      "basti": 4731,
      "breton": 4732,
      "Sector": 4733,
      "ding": 4734,
      "prene": 4735,
      "rencon": 4736,
      "Mag": 4737,
      "participat": 4738,
      "bateria": 4739,
      "Dijaus": 4740,
      "perits": 4741,
      "Podètz": 4742,
      "Paris": 4743,
      "Parescuda": 4744,
      "universitat": 4745,
      "Programa": 4746,
      "literaris": 4747,
      "artistic": 4748,
      "novèu": 4749,
      "camps": 4750,
      "Regionau": 4751,
      "cercar": 4752,
      "orizar": 4753,
      "borde": 4754,
      "aglomeracion": 4755,
      "dirèc": 4756,
      "envir": 4757,
      "poesias": 4758,
      "èrem": 4759,
      "Presentacion": 4760,
      "Manuf": 4761,
      "comprenes": 4762,
      "Arnaud": 4763,
      "contribuir": 4764,
      "TEI": 4765,
      "frasa": 4766,
      "classica": 4767,
      "Collec": 4768,
      "Ça": 4769,
      "literària": 4770,
      "plòma": 4771,
      "setmanas": 4772,
      "Avèm": 4773,
      "carrièra": 4774,
      "amistat": 4775,
      "papèrs": 4776,
      "generacion": 4777,
      "acostumat": 4778,
      "Huec": 4779,
      "Morlaàs": 4780,
      "escasença": 4781,
      "Quinzena": 4782,
      "31406": 4783,
      "Sebastian": 4784,
      "Dàvid": 4785,
      "Manufactu": 4786,
      ".)": 4787,
      "55": 4788,
      "Ate": 4789,
      "Adri": 4790,
      "Blan": 4791,
      "Crida": 4792,
      "FA": 4793,
      "Fré": 4794,
      "Gau": 4795,
      "Gé": 4796,
      "Ibòs": 4797,
      "ITEM": 4798,
      "Lèren": 4799,
      "NON": 4800,
      "Ori": 4801,
      "Pren": 4802,
      "bos": 4803,
      "beu": 4804,
      "fras": 4805,
      "iràn": 4806,
      "lc": 4807,
      "nèu": 4808,
      "opcion": 4809,
      "rèt": 4810,
      "zet": 4811,
      "table": 4812,
      "què": 4813,
      "redon": 4814,
      "quelas": 4815,
      "caliá": 4816,
      "liu": 4817,
      "lian": 4818,
      "matic": 4819,
      "matica": 4820,
      "selha": 4821,
      "siona": 4822,
      "vielle": 4823,
      "lengua": 4824,
      "ché": 4825,
      "mentar": 4826,
      "dissatge": 4827,
      "Espaci": 4828,
      "grafica": 4829,
      "escu": 4830,
      "Cou": 4831,
      "faci": 4832,
      "Came": 4833,
      "Arvei": 4834,
      "colors": 4835,
      "partidas": 4836,
      "luènh": 4837,
      "interro": 4838,
      "ficas": 4839,
      "ficcion": 4840,
      "Marselha": 4841,
      "Gaston": 4842,
      "Bibli": 4843,
      "Rousse": 4844,
      "Carcas": 4845,
      "mainatge": 4846,
      "element": 4847,
      "lexi": 4848,
      "femin": 4849,
      "Felibri": 4850,
      "Voles": 4851,
      "provençal": 4852,
      "jussin": 4853,
      "etnopòle": 4854,
      "ancianas": 4855,
      "flabuta": 4856,
      "bòsc": 4857,
      "Charles": 4858,
      "documentaris": 4859,
      "Tornar": 4860,
      "Éditions": 4861,
      "paisatge": 4862,
      "Jaurès": 4863,
      "aquiu": 4864,
      "regionala": 4865,
      "testimoni": 4866,
      "pedagogicas": 4867,
      "inedits": 4868,
      "tòrna": 4869,
      "originau": 4870,
      "particularament": 4871,
      "Anima": 4872,
      "caractèr": 4873,
      "Lucila": 4874,
      "etnomusicologia": 4875,
      "burèu": 4876,
      "dificul": 4877,
      "Esquireta": 4878,
      "Miremont": 4879,
      "Ressopet": 4880,
      "36": 4881,
      "44": 4882,
      "Avi": 4883,
      "Clé": 4884,
      "EM": 4885,
      "EAC": 4886,
      "Mès": 4887,
      "Nò": 4888,
      "Venta": 4889,
      "bd": 4890,
      "cran": 4891,
      "elabo": 4892,
      "guna": 4893,
      "hatge": 4894,
      "ior": 4895,
      "idonc": 4896,
      "itia": 4897,
      "ner": 4898,
      "sèm": 4899,
      "utat": 4900,
      "zar": 4901,
      "encòp": 4902,
      "endonc": 4903,
      "quer": 4904,
      "esperits": 4905,
      "audi": 4906,
      "ret": 4907,
      "redi": 4908,
      "refer": 4909,
      "reü": 4910,
      "quel": 4911,
      "inde": 4912,
      "dal": 4913,
      "concre": 4914,
      "vitanta": 4915,
      "restau": 4916,
      "torisme": 4917,
      "lhat": 4918,
      "rope": 4919,
      "paga": 4920,
      "mila": 4921,
      "lanie": 4922,
      "acces": 4923,
      "Esca": 4924,
      "ette": 4925,
      "vengut": 4926,
      "venguts": 4927,
      "voler": 4928,
      "dobla": 4929,
      "dèt": 4930,
      "tèri": 4931,
      "́nher": 4932,
      "lizada": 4933,
      "obèrt": 4934,
      "cartas": 4935,
      "Enter": 4936,
      "genièr": 4937,
      "larga": 4938,
      "Perdon": 4939,
      "fonia": 4940,
      "organizacion": 4941,
      "impression": 4942,
      "Navèth": 4943,
      "escriure": 4944,
      "ensenhaire": 4945,
      "Pirenèas": 4946,
      "aliança": 4947,
      "naturau": 4948,
      "professors": 4949,
      "Estagis": 4950,
      "fait": 4951,
      "2006": 4952,
      "vèrb": 4953,
      "artista": 4954,
      "Peçac": 4955,
      "Bou": 4956,
      "bearnesas": 4957,
      "presentat": 4958,
      "dirècte": 4959,
      "quinas": 4960,
      "discus": 4961,
      "juste": 4962,
      "objectius": 4963,
      "Saint": 4964,
      "volume": 4965,
      "causit": 4966,
      "simpla": 4967,
      "candidats": 4968,
      "arribada": 4969,
      "1980": 4970,
      "Mélanie": 4971,
      "Chancaires": 4972,
      "mairs": 4973,
      "modèrna": 4974,
      "fablas": 4975,
      "establiments": 4976,
      "Papà": 4977,
      "estèla": 4978,
      "representants": 4979,
      "traduccions": 4980,
      "Pyrénées": 4981,
      "patrimoniaus": 4982,
      "pastoralisme": 4983,
      "finançament": 4984,
      "gràcias": 4985,
      "educa": 4986,
      "Atelier": 4987,
      "Gérard": 4988,
      "'.": 4989,
      "49": 4990,
      "À": 4991,
      "Gèrs": 4992,
      "Mos": 4993,
      "Of": 4994,
      "Vic": 4995,
      "aci": 4996,
      "amo": 4997,
      "adre": 4998,
      "fle": 4999,
      "fòrt": 5000,
      "glo": 5001,
      "op": 5002,
      "oli": 5003,
      "otisses": 5004,
      "scè": 5005,
      "demica": 5006,
      "quar": 5007,
      "èdia": 5008,
      "ansi": 5009,
      "relat": 5010,
      "tisa": 5011,
      "tièr": 5012,
      "rièr": 5013,
      "dament": 5014,
      "unic": 5015,
      "calandre": 5016,
      "mati": 5017,
      "nais": 5018,
      "guèri": 5019,
      "mea": 5020,
      "papi": 5021,
      "progres": 5022,
      "òrna": 5023,
      "ÒPLO": 5024,
      "Queu": 5025,
      "Quela": 5026,
      "ishon": 5027,
      "moder": 5028,
      "notada": 5029,
      "nemus": 5030,
      "exper": 5031,
      "exprimi": 5032,
      "superi": 5033,
      "entad": 5034,
      "maréchal": 5035,
      "juin": 5036,
      "juts": 5037,
      "barra": 5038,
      "joga": 5039,
      "jogar": 5040,
      "fichi": 5041,
      "publicats": 5042,
      "plai": 5043,
      "passats": 5044,
      "bud": 5045,
      "pèças": 5046,
      "coneguda": 5047,
      "band": 5048,
      "demandas": 5049,
      "avèvi": 5050,
      "unitat": 5051,
      "animaràn": 5052,
      "feccion": 5053,
      "femna": 5054,
      "trobador": 5055,
      "Guy": 5056,
      "licéncia": 5057,
      "visitar": 5058,
      "experiéncias": 5059,
      "PCILab": 5060,
      "medisha": 5061,
      "popular": 5062,
      "Minvielle": 5063,
      "decidit": 5064,
      "aventura": 5065,
      "competéncia": 5066,
      "revirada": 5067,
      "dinamica": 5068,
      "Collè": 5069,
      "acompanhats": 5070,
      "Generau": 5071,
      "Ciutat": 5072,
      "Félix": 5073,
      "poetica": 5074,
      "estandar": 5075,
      "Euskal": 5076,
      "barreja": 5077,
      "doblatge": 5078,
      "LLE": 5079,
      "Julien": 5080,
      "Azun": 5081,
      "Syl": 5082,
      "nòrma": 5083,
      "lemosina": 5084,
      "compreneson": 5085,
      "Frédé": 5086,
      "NONE": 5087,
      "300": 5088,
      "Adis": 5089,
      "Amis": 5090,
      "Aviá": 5091,
      "Bala": 5092,
      "Fas": 5093,
      "Gric": 5094,
      "Lor": 5095,
      "Nau": 5096,
      "Nor": 5097,
      "Rai": 5098,
      "Sci": 5099,
      "SCO": 5100,
      "avis": 5101,
      "ctas": 5102,
      "flors": 5103,
      "gri": 5104,
      "ht": 5105,
      "palh": 5106,
      "rus": 5107,
      "tèsta": 5108,
      "vres": 5109,
      "defen": 5110,
      "ende": 5111,
      "enjòcs": 5112,
      "onne": 5113,
      "erci": 5114,
      "arbres": 5115,
      "aupenc": 5116,
      "òm": 5117,
      "tiens": 5118,
      "istòrias": 5119,
      "corat": 5120,
      "tradition": 5121,
      "lhèrs": 5122,
      "rand": 5123,
      "pogut": 5124,
      "pez": 5125,
      "verd": 5126,
      "discip": 5127,
      "velhada": 5128,
      "meses": 5129,
      "mod": 5130,
      "venta": 5131,
      "dou": 5132,
      "Condat": 5133,
      "escut": 5134,
      "baisha": 5135,
      "marcat": 5136,
      "Entre": 5137,
      "bilanç": 5138,
      "bigordan": 5139,
      "pit": 5140,
      "trio": 5141,
      "Anton": 5142,
      "editor": 5143,
      "corsa": 5144,
      "Bian": 5145,
      "talonada": 5146,
      "cosin": 5147,
      "nautres": 5148,
      "merce": 5149,
      "Nogat": 5150,
      "oraus": 5151,
      "Musicas": 5152,
      "organizadas": 5153,
      "teledescargar": 5154,
      "santat": 5155,
      "vindi": 5156,
      "vintenat": 5157,
      "Vol": 5158,
      "semblada": 5159,
      "instrument": 5160,
      "darrèra": 5161,
      "bibliotèca": 5162,
      "laidonc": 5163,
      "perpausarà": 5164,
      "Pantalonada": 5165,
      "plasent": 5166,
      "carrèras": 5167,
      "productors": 5168,
      "XIXau": 5169,
      "installacion": 5170,
      "ençà": 5171,
      "branlos": 5172,
      "fresche": 5173,
      "Alienòr": 5174,
      "chaptar": 5175,
      "Daunas": 5176,
      "Nicolas": 5177,
      "Nicolàs": 5178,
      "amassats": 5179,
      "Alavetz": 5180,
      "Encontre": 5181,
      "frucha": 5182,
      "www": 5183,
      "fabricacion": 5184,
      "terranèa": 5185,
      "participèn": 5186,
      "nombros": 5187,
      "assistir": 5188,
      "Professor": 5189,
      "particular": 5190,
      "capacitat": 5191,
      "castelhan": 5192,
      "Wikimèdia": 5193,
      "Illustrator": 5194,
      "prevists": 5195,
      "jussinca": 5196,
      "37": 5197,
      "4pt": 5198,
      "57": 5199,
      "Ale": 5200,
      "Ado": 5201,
      "Bèth": 5202,
      "Dona": 5203,
      "ER": 5204,
      "FR": 5205,
      "Ganha": 5206,
      "Ora": 5207,
      "Plaça": 5208,
      "Rà": 5209,
      "Saut": 5210,
      "Tho": 5211,
      "ava": 5212,
      "agi": 5213,
      "avut": 5214,
      "elha": 5215,
      "evolucion": 5216,
      "fèr": 5217,
      "gost": 5218,
      "iós": 5219,
      "llen": 5220,
      "mula": 5221,
      "ny": 5222,
      "nòu": 5223,
      "oi": 5224,
      "ot": 5225,
      "ola": 5226,
      "tus": 5227,
      "tent": 5228,
      "za": 5229,
      "”,": 5230,
      "deli": 5231,
      "defin": 5232,
      "esma": 5233,
      "espor": 5234,
      "antologia": 5235,
      "aunor": 5236,
      "ore": 5237,
      "tier": 5238,
      "riàs": 5239,
      "india": 5240,
      "dava": 5241,
      "unt": 5242,
      "istic": 5243,
      "cà": 5244,
      "cava": 5245,
      "major": 5246,
      "hac": 5247,
      "hament": 5248,
      "occitanisme": 5249,
      "trau": 5250,
      "tstyle": 5251,
      "pare": 5252,
      "podut": 5253,
      "versau": 5254,
      "vergne": 5255,
      "duts": 5256,
      "velha": 5257,
      "mesura": 5258,
      "modi": 5259,
      "musèu": 5260,
      "Aulhèrs": 5261,
      "raton": 5262,
      "cem": 5263,
      "bada": 5264,
      "pause": 5265,
      "còt": 5266,
      "famós": 5267,
      "chabat": 5268,
      "recla": 5269,
      "aviat": 5270,
      "Vilan": 5271,
      "empont": 5272,
      "rendetz": 5273,
      "clava": 5274,
      "Lion": 5275,
      "portada": 5276,
      "coneguts": 5277,
      "transméter": 5278,
      "arrepro": 5279,
      "Melh": 5280,
      "personaus": 5281,
      "Poli": 5282,
      "artisan": 5283,
      "espèra": 5284,
      "vòstres": 5285,
      "acadèmia": 5286,
      "descobritz": 5287,
      "Ostal": 5288,
      "vertadèra": 5289,
      "Desvolo": 5290,
      "Mous": 5291,
      "chança": 5292,
      "interac": 5293,
      "etnologia": 5294,
      "how": 5295,
      "istoèras": 5296,
      "chausi": 5297,
      "logics": 5298,
      "domenis": 5299,
      "arcuelherà": 5300,
      "elegit": 5301,
      "estructuras": 5302,
      "ciuta": 5303,
      "Arribèra": 5304,
      "Ròse": 5305,
      "Camins": 5306,
      "audiovisuau": 5307,
      "podèm": 5308,
      "manifestacion": 5309,
      "telefonets": 5310,
      "montanhas": 5311,
      "perspectivas": 5312,
      "Brantòs": 5313,
      "bóitia": 5314,
      "rock": 5315,
      "toponimes": 5316,
      "ceremonia": 5317,
      "Nacionau": 5318,
      "Adrien": 5319,
      "Ràdio": 5320,
      "Brantòsme": 5321,
      "58": 5322,
      "500": 5323,
      "BA": 5324,
      "Cent": 5325,
      "Cth": 5326,
      "Chas": 5327,
      "Fra": 5328,
      "Fif": 5329,
      "Gal": 5330,
      "Isab": 5331,
      "Katy": 5332,
      "ME": 5333,
      "Péri": 5334,
      "Ton": 5335,
      "Vai": 5336,
      "Yan": 5337,
      "ama": 5338,
      "ahor": 5339,
      "crè": 5340,
      "dator": 5341,
      "faud": 5342,
      "gna": 5343,
      "hèr": 5344,
      "iras": 5345,
      "ku": 5346,
      "més": 5347,
      "mèn": 5348,
      "ombra": 5349,
      "phan": 5350,
      "pèiras": 5351,
      "rr": 5352,
      "ròs": 5353,
      "€.": 5354,
      "ravi": 5355,
      "quen": 5356,
      "òlas": 5357,
      "tirats": 5358,
      "calèva": 5359,
      "mag": 5360,
      "maticas": 5361,
      "levar": 5362,
      "torau": 5363,
      "simb": 5364,
      "virada": 5365,
      "tuas": 5366,
      "tuga": 5367,
      "lhe": 5368,
      "rança": 5369,
      "soven": 5370,
      "ràdio": 5371,
      "pola": 5372,
      "vaduda": 5373,
      "gigan": 5374,
      "disen": 5375,
      "Escar": 5376,
      "comis": 5377,
      "mesclan": 5378,
      "nier": 5379,
      "dèus": 5380,
      "tèn": 5381,
      "fort": 5382,
      "bocin": 5383,
      "marin": 5384,
      "color": 5385,
      "partit": 5386,
      "chamin": 5387,
      "Totas": 5388,
      "Defini": 5389,
      "Permanent": 5390,
      "arrère": 5391,
      "intervencion": 5392,
      "interior": 5393,
      "segura": 5394,
      "amu": 5395,
      "uech": 5396,
      "garri": 5397,
      "latèrra": 5398,
      "Asta": 5399,
      "escriuts": 5400,
      "Monenh": 5401,
      "clau": 5402,
      "rurau": 5403,
      "semblan": 5404,
      "Pascal": 5405,
      "Aigas": 5406,
      "demandat": 5407,
      "Berton": 5408,
      "faire": 5409,
      "Châte": 5410,
      "novèl": 5411,
      "Paratge": 5412,
      "vòstas": 5413,
      "Gargàs": 5414,
      "polifonicas": 5415,
      "sintax": 5416,
      "Felibre": 5417,
      "collèctas": 5418,
      "centra": 5419,
      "fuguèt": 5420,
      "Bonas": 5421,
      "ENH": 5422,
      "varianta": 5423,
      "començaires": 5424,
      "populacion": 5425,
      "popularas": 5426,
      "Anglatèrra": 5427,
      "repertòris": 5428,
      "secrèt": 5429,
      "adop": 5430,
      "surtir": 5431,
      "omic": 5432,
      "departamentau": 5433,
      "cronica": 5434,
      "Quauqu": 5435,
      "Guilhèm": 5436,
      "candidatura": 5437,
      "Taula": 5438,
      "hialats": 5439,
      "Eths": 5440,
      "Campanha": 5441,
      "ulhu": 5442,
      "pòste": 5443,
      "aspèctes": 5444,
      "fotografias": 5445,
      "Abbadie": 5446,
      "deputat": 5447,
      "minoritàrias": 5448,
      "aperet": 5449,
      "tzaindia": 5450,
      "obligatòria": 5451,
      "recèpta": 5452,
      "coneissença": 5453,
      "ENSENH": 5454,
      "scèna": 5455,
      "notadament": 5456,
      "Euskaltzaindia": 5457,
      "Frédéric": 5458,
      "Bianchi": 5459,
      "Cthulhu": 5460,
      "Fifres": 5461,
      "Felibrejada": 5462,
      "38": 5463,
      "Ana": 5464,
      "Ane": 5465,
      "Acós": 5466,
      "DG": 5467,
      "Dança": 5468,
      "ERS": 5469,
      "Hi": 5470,
      "Jaques": 5471,
      "Lòc": 5472,
      "Patrimònis": 5473,
      "Th": 5474,
      "The": 5475,
      "Var": 5476,
      "Vent": 5477,
      "ade": 5478,
      "fum": 5479,
      "freg": 5480,
      "gnos": 5481,
      "imatges": 5482,
      "ncia": 5483,
      "odor": 5484,
      "omenatge": 5485,
      "sòr": 5486,
      "ud": 5487,
      "uèva": 5488,
      "devè": 5489,
      "òp": 5490,
      "ditas": 5491,
      "dians": 5492,
      "tirar": 5493,
      "loca": 5494,
      "ritz": 5495,
      "ligats": 5496,
      "coa": 5497,
      "cole": 5498,
      "perfi": 5499,
      "totau": 5500,
      "hadas": 5501,
      "sí": 5502,
      "alter": 5503,
      "vidu": 5504,
      "ià": 5505,
      "toria": 5506,
      "git": 5507,
      "mba": 5508,
      "mits": 5509,
      "òrra": 5510,
      "landesa": 5511,
      "moda": 5512,
      "doça": 5513,
      "jaments": 5514,
      "Concèrt": 5515,
      "tèla": 5516,
      "compausa": 5517,
      "questa": 5518,
      "lèus": 5519,
      "obtiéner": 5520,
      "mariá": 5521,
      "carnaval": 5522,
      "bilitats": 5523,
      "pilo": 5524,
      "champ": 5525,
      "lucha": 5526,
      "gessi": 5527,
      "interfàcia": 5528,
      "ueus": 5529,
      "Aquela": 5530,
      "Marman": 5531,
      "Gasco": 5532,
      "passant": 5533,
      "govèrn": 5534,
      "mostres": 5535,
      "clavi": 5536,
      "transfron": 5537,
      "arrigueta": 5538,
      "Massi": 5539,
      "personatge": 5540,
      "tèrmi": 5541,
      "Parti": 5542,
      "avèvan": 5543,
      "Produs": 5544,
      "trobam": 5545,
      "estival": 5546,
      "esplei": 5547,
      "contaire": 5548,
      "acabat": 5549,
      "Guil": 5550,
      "filmes": 5551,
      "nivèl": 5552,
      "centen": 5553,
      "ligams": 5554,
      "pròsa": 5555,
      "avançat": 5556,
      "Dictada": 5557,
      "difusat": 5558,
      "Nimes": 5559,
      "reivindi": 5560,
      "content": 5561,
      "panèus": 5562,
      "iniciativa": 5563,
      "hicat": 5564,
      "isténcia": 5565,
      "individu": 5566,
      "titolada": 5567,
      "abordar": 5568,
      "classic": 5569,
      "Patrick": 5570,
      "Mediterranèa": 5571,
      "responsabi": 5572,
      "responsables": 5573,
      "Papé": 5574,
      "candidaturas": 5575,
      "tecnica": 5576,
      "ambient": 5577,
      "relacions": 5578,
      "Trobadors": 5579,
      "ordinacion": 5580,
      "avançada": 5581,
      "exemples": 5582,
      "Cercar": 5583,
      "eissaiar": 5584,
      "Adara": 5585,
      "fantastic": 5586,
      "Mercadièr": 5587,
      "Jòrgi": 5588,
      "dimenjada": 5589,
      "Trio": 5590,
      "confir": 5591,
      "escriuta": 5592,
      "permeterà": 5593,
      "Laboratòri": 5594,
      "pertocant": 5595,
      "senhale": 5596,
      "ATP": 5597,
      "Carcassona": 5598,
      "Vilanuèva": 5599,
      "Escarpit": 5600,
      "51": 5601,
      "99": 5602,
      "Ban": 5603,
      "Bus": 5604,
      "Cra": 5605,
      "Cé": 5606,
      "El": 5607,
      "Fac": 5608,
      "Frot": 5609,
      "Garr": 5610,
      "Hauts": 5611,
      "Ou": 5612,
      "Sub": 5613,
      "Tè": 5614,
      "Yves": 5615,
      "besti": 5616,
      "cé": 5617,
      "cèl": 5618,
      "eus": 5619,
      "hestiu": 5620,
      "xa": 5621,
      "zy": 5622,
      "”.": 5623,
      "debuta": 5624,
      "delici": 5625,
      "debats": 5626,
      "encs": 5627,
      "èna": 5628,
      "èvan": 5629,
      "cine": 5630,
      "asse": 5631,
      "eric": 5632,
      "arra": 5633,
      "retrobar": 5634,
      "refòrma": 5635,
      "diau": 5636,
      "quemal": 5637,
      "tirada": 5638,
      "inno": 5639,
      "usatges": 5640,
      "caça": 5641,
      "ligadas": 5642,
      "tés": 5643,
      "perméter": 5644,
      "cong": 5645,
      "hami": 5646,
      "name": 5647,
      "meaux": 5648,
      "mpe": 5649,
      "partatge": 5650,
      "roge": 5651,
      "èram": 5652,
      "Lop": 5653,
      "Lopez": 5654,
      "gigant": 5655,
      "Laidonc": 5656,
      "propri": 5657,
      "mantuas": 5658,
      "ciala": 5659,
      "chu": 5660,
      "menç": 5661,
      "taulas": 5662,
      "aital": 5663,
      "vede": 5664,
      "urban": 5665,
      "compa": 5666,
      "escul": 5667,
      "tòcan": 5668,
      "lèt": 5669,
      "liza": 5670,
      "bole": 5671,
      "lesa": 5672,
      "Enric": 5673,
      "credi": 5674,
      "luenh": 5675,
      "Delegacion": 5676,
      "plantava": 5677,
      "intermedi": 5678,
      "lector": 5679,
      "cris": 5680,
      "Beran": 5681,
      "Assis": 5682,
      "mostrar": 5683,
      "Bornat": 5684,
      "soscripcion": 5685,
      "quanti": 5686,
      "periòde": 5687,
      "professiona": 5688,
      "realizadas": 5689,
      "eraus": 5690,
      "apèra": 5691,
      "tèron": 5692,
      "bonne": 5693,
      "bonjorn": 5694,
      "cantèras": 5695,
      "varia": 5696,
      "2007": 5697,
      "Cassag": 5698,
      "Sous": 5699,
      "publicadas": 5700,
      "fòrmas": 5701,
      "novembre": 5702,
      "campan": 5703,
      "Bour": 5704,
      "estudiant": 5705,
      "borda": 5706,
      "trobaretz": 5707,
      "sòmis": 5708,
      "subvencion": 5709,
      "Piquemal": 5710,
      "Dumeaux": 5711,
      "entito": 5712,
      "aprendissatge": 5713,
      "istorica": 5714,
      "Cornemus": 5715,
      "francesas": 5716,
      "militant": 5717,
      "Sauzet": 5718,
      "Sabes": 5719,
      "favorizar": 5720,
      "lecturas": 5721,
      "Danièl": 5722,
      "sheisau": 5723,
      "aisida": 5724,
      "huec": 5725,
      "Quauques": 5726,
      "inedita": 5727,
      "regulacion": 5728,
      "sociolingüistica": 5729,
      "estrate": 5730,
      "ofèrta": 5731,
      "combat": 5732,
      "Trobada": 5733,
      "usatgèrs": 5734,
      "LFLF": 5735,
      "platafòrma": 5736,
      "occitanofònes": 5737,
      "acabarà": 5738,
      "prononciacion": 5739,
      "UPPA": 5740,
      "Bidaishe": 5741,
      "programas": 5742,
      "Olivier": 5743,
      "recompensa": 5744,
      "Rectorat": 5745,
      "Descobrir": 5746,
      "munici": 5747,
      "conseque": 5748,
      "lexico": 5749,
      "accessi": 5750,
      "Sylva": 5751,
      "gnostic": 5752,
      "Ari": 5753,
      "Cin": 5754,
      "Cos": 5755,
      "CLLE": 5756,
      "DO": 5757,
      "Dal": 5758,
      "Gus": 5759,
      "Grana": 5760,
      "Garrigueta": 5761,
      "Hu": 5762,
      "Ini": 5763,
      "Nu": 5764,
      "RA": 5765,
      "Ret": 5766,
      "Sw": 5767,
      "XXau": 5768,
      "ach": 5769,
      "eràn": 5770,
      "ft": 5771,
      "pats": 5772,
      "rn": 5773,
      "endavant": 5774,
      "oni": 5775,
      "once": 5776,
      "quèstra": 5777,
      "citar": 5778,
      "arts": 5779,
      "arnais": 5780,
      "autat": 5781,
      "auprès": 5782,
      "òls": 5783,
      "dich": 5784,
      "und": 5785,
      "ismes": 5786,
      "capa": 5787,
      "cafè": 5788,
      "coor": 5789,
      "salon": 5790,
      "conce": 5791,
      "siva": 5792,
      "virar": 5793,
      "trapa": 5794,
      "lhós": 5795,
      "pasa": 5796,
      "som": 5797,
      "pour": 5798,
      "saben": 5799,
      "valada": 5800,
      "meilèu": 5801,
      "papèr": 5802,
      "get": 5803,
      "lanés": 5804,
      "menja": 5805,
      "previstas": 5806,
      "Escau": 5807,
      "onsas": 5808,
      "comus": 5809,
      "doble": 5810,
      "java": 5811,
      "negra": 5812,
      "exerci": 5813,
      "rián": 5814,
      "Autona": 5815,
      "quest": 5816,
      "ansen": 5817,
      "énher": 5818,
      "tren": 5819,
      "bale": 5820,
      "minas": 5821,
      "lèc": 5822,
      "farà": 5823,
      "Recèrca": 5824,
      "bilingüisme": 5825,
      "mòs": 5826,
      "crea": 5827,
      "David": 5828,
      "planta": 5829,
      "seguent": 5830,
      "Editions": 5831,
      "gionalismes": 5832,
      "podem": 5833,
      "animaus": 5834,
      "avion": 5835,
      "associatius": 5836,
      "balhat": 5837,
      "Nav": 5838,
      "escriutas": 5839,
      "nosautes": 5840,
      "pensada": 5841,
      "goi": 5842,
      "Monta": 5843,
      "presentada": 5844,
      "escolars": 5845,
      "ille": 5846,
      "estos": 5847,
      "entervista": 5848,
      "embar": 5849,
      "comenc": 5850,
      "personau": 5851,
      "practi": 5852,
      "Bertran": 5853,
      "hilh": 5854,
      "universau": 5855,
      "miada": 5856,
      "especialistas": 5857,
      "oralitat": 5858,
      "animada": 5859,
      "Musèu": 5860,
      "Comuna": 5861,
      "Commons": 5862,
      "Regionalismes": 5863,
      "Garbu": 5864,
      "Federacion": 5865,
      "fusion": 5866,
      "experimenta": 5867,
      "experimentacion": 5868,
      "poèma": 5869,
      "Molin": 5870,
      "Salas": 5871,
      "coneishenças": 5872,
      "Domenja": 5873,
      "presentè": 5874,
      "Lauren": 5875,
      "possibilitats": 5876,
      "conselhs": 5877,
      "conselhèr": 5878,
      "umans": 5879,
      "maridatge": 5880,
      "contribucions": 5881,
      "companhs": 5882,
      "principi": 5883,
      "ressorças": 5884,
      "revival": 5885,
      "trobatz": 5886,
      "logicas": 5887,
      "Wikimedia": 5888,
      "Renart": 5889,
      "huelha": 5890,
      "installar": 5891,
      "universitaris": 5892,
      "establiment": 5893,
      "quasiment": 5894,
      "Comunautat": 5895,
      "contactar": 5896,
      "Robina": 5897,
      "Roulet": 5898,
      "Avètz": 5899,
      "responsas": 5900,
      "Matèu": 5901,
      "analisi": 5902,
      "Seuve": 5903,
      "tamborin": 5904,
      "metuda": 5905,
      "Geronce": 5906,
      "gelarèias": 5907,
      "Johansen": 5908,
      "environament": 5909,
      "Sciéncias": 5910,
      "arreproèrs": 5911,
      "ENSENHAR": 5912,
      "DGLFLF": 5913,
      "ERSS": 5914,
      "Marmandés": 5915,
      "Cassagnet": 5916,
      "Arièja": 5917,
      "41": 5918,
      "54": 5919,
      "97": 5920,
      "9h": 5921,
      "Ais": 5922,
      "Cris": 5923,
      "Dub": 5924,
      "Dans": 5925,
      "EP": 5926,
      "És": 5927,
      "Eguna": 5928,
      "Gè": 5929,
      "Io": 5930,
      "Ives": 5931,
      "LIN": 5932,
      "PR": 5933,
      "Ramb": 5934,
      "Sté": 5935,
      "Tad": 5936,
      "XXI": 5937,
      "ah": 5938,
      "aveni": 5939,
      "blò": 5940,
      "club": 5941,
      "dons": 5942,
      "gèr": 5943,
      "hatz": 5944,
      "kes": 5945,
      "pei": 5946,
      "pica": 5947,
      "wik": 5948,
      "̀ria": 5949,
      "enas": 5950,
      "taire": 5951,
      "tativa": 5952,
      "talament": 5953,
      "quis": 5954,
      "èls": 5955,
      "esquí": 5956,
      "ciaus": 5957,
      "associ": 5958,
      "rés": 5959,
      "reedicion": 5960,
      "relai": 5961,
      "istica": 5962,
      "cament": 5963,
      "tera": 5964,
      "có": 5965,
      "èrbas": 5966,
      "perfeccion": 5967,
      "contar": 5968,
      "oche": 5969,
      "sièc": 5970,
      "vic": 5971,
      "viat": 5972,
      "vilas": 5973,
      "viers": 5974,
      "gae": 5975,
      "mpa": 5976,
      "residéncia": 5977,
      "parent": 5978,
      "pareish": 5979,
      "podo": 5980,
      "miats": 5981,
      "proposicion": 5982,
      "geogra": 5983,
      "mans": 5984,
      "chausas": 5985,
      "mental": 5986,
      "gastron": 5987,
      "moneda": 5988,
      "monino": 5989,
      "nie": 5990,
      "master": 5991,
      "excepcion": 5992,
      "compta": 5993,
      "Auvergne": 5994,
      "filh": 5995,
      "fís": 5996,
      "trenta": 5997,
      "lèna": 5998,
      "pauru": 5999,
      "Archius": 6000,
      "trobas": 6001,
      "creada": 6002,
      "luòc": 6003,
      "tris": 6004,
      "recu": 6005,
      "atribu": 6006,
      "Dama": 6007,
      "Lemòtges": 6008,
      "Sever": 6009,
      "americ": 6010,
      "tinas": 6011,
      "aviar": 6012,
      "imum": 6013,
      "plaja": 6014,
      "nostas": 6015,
      "passèt": 6016,
      "pausan": 6017,
      "dorn": 6018,
      "Maiada": 6019,
      "naud": 6020,
      "territoria": 6021,
      "collectatges": 6022,
      "Lana": 6023,
      "novèls": 6024,
      "vòstes": 6025,
      "Inscripcion": 6026,
      "presentan": 6027,
      "centenat": 6028,
      "Clamenç": 6029,
      "pròche": 6030,
      "Site": 6031,
      "tornarà": 6032,
      "tornan": 6033,
      "chancas": 6034,
      "istorics": 6035,
      "Jakes": 6036,
      "completa": 6037,
      "acompanhada": 6038,
      "Arnaut": 6039,
      "umanas": 6040,
      "comunautats": 6041,
      "vriulons": 6042,
      "estranhas": 6043,
      "principaus": 6044,
      "tresaur": 6045,
      "perpausar": 6046,
      "finançar": 6047,
      "inspirat": 6048,
      "continua": 6049,
      "complètament": 6050,
      "estèlas": 6051,
      "hesteja": 6052,
      "respècte": 6053,
      "redaccion": 6054,
      "melodias": 6055,
      "ordinari": 6056,
      "vivaroaupenc": 6057,
      "Senon": 6058,
      "Ricard": 6059,
      "tablèu": 6060,
      "profiei": 6061,
      "invitats": 6062,
      "manuscrit": 6063,
      "Aymonino": 6064,
      "bèths": 6065,
      "quilomètres": 6066,
      "circu": 6067,
      "precedent": 6068,
      "problèma": 6069,
      "predictiu": 6070,
      "sonòrs": 6071,
      "carlamusa": 6072,
      "quoti": 6073,
      "atencion": 6074,
      "Xarnegu": 6075,
      "dirèctament": 6076,
      "Ventadorn": 6077,
      "fichièrs": 6078,
      "Ganhaire": 6079,
      "clavièr": 6080,
      "senhaletica": 6081,
      "Frotja": 6082,
      "Sylvain": 6083,
      "Seuvetons": 6084,
      "Ioba": 6085,
      "wiki": 6086,
      ".-": 6087,
      "46": 6088,
      "CC": 6089,
      "DC": 6090,
      "Eissa": 6091,
      "FE": 6092,
      "Fin": 6093,
      "Gro": 6094,
      "Her": 6095,
      "OE": 6096,
      "Pont": 6097,
      "Pòde": 6098,
      "Sí": 6099,
      "Sèm": 6100,
      "Thi": 6101,
      "Usès": 6102,
      "agu": 6103,
      "amat": 6104,
      "ahue": 6105,
      "evolu": 6106,
      "feu": 6107,
      "iment": 6108,
      "jac": 6109,
      "nòrd": 6110,
      "operacion": 6111,
      "ologica": 6112,
      "rue": 6113,
      "uòu": 6114,
      "engen": 6115,
      "tam": 6116,
      "larament": 6117,
      "quèsta": 6118,
      "esten": 6119,
      "essen": 6120,
      "ero": 6121,
      "auvit": 6122,
      "recon": 6123,
      "atra": 6124,
      "invita": 6125,
      "dais": 6126,
      "calor": 6127,
      "sament": 6128,
      "entor": 6129,
      "percors": 6130,
      "pertòcan": 6131,
      "conne": 6132,
      "tó": 6133,
      "sitat": 6134,
      "trabalha": 6135,
      "torns": 6136,
      "parescut": 6137,
      "soviers": 6138,
      "àrias": 6139,
      "mand": 6140,
      "chen": 6141,
      "china": 6142,
      "landés": 6143,
      "taulièr": 6144,
      "aban": 6145,
      "tèu": 6146,
      "hard": 6147,
      "serena": 6148,
      "bou": 6149,
      "còlas": 6150,
      "dant": 6151,
      "pòble": 6152,
      "piaus": 6153,
      "cré": 6154,
      "Tou": 6155,
      "arry": 6156,
      "fondator": 6157,
      "rància": 6158,
      "ensenhan": 6159,
      "sentiment": 6160,
      "Vidal": 6161,
      "gojat": 6162,
      "Borda": 6163,
      "Maraton": 6164,
      "prepausaràn": 6165,
      "selhon": 6166,
      "numéri": 6167,
      "quanta": 6168,
      "sauvar": 6169,
      "Diu": 6170,
      "entertiens": 6171,
      "transfer": 6172,
      "Aime": 6173,
      "cuélher": 6174,
      "rondèus": 6175,
      "especific": 6176,
      "permetre": 6177,
      "parlava": 6178,
      "Larché": 6179,
      "especiaument": 6180,
      "enregistrat": 6181,
      "contemporanèu": 6182,
      "milie": 6183,
      "vocaus": 6184,
      "electri": 6185,
      "issent": 6186,
      "dobte": 6187,
      "Benlèu": 6188,
      "principau": 6189,
      "Estudi": 6190,
      "Dancem": 6191,
      "Soston": 6192,
      "acostica": 6193,
      "tecnologia": 6194,
      "modèrne": 6195,
      "facha": 6196,
      "procedi": 6197,
      "Andriu": 6198,
      "explicar": 6199,
      "pirenenca": 6200,
      "blanc": 6201,
      "detzenat": 6202,
      "XIIau": 6203,
      "doctor": 6204,
      "Veire": 6205,
      "concertacion": 6206,
      "manifestacions": 6207,
      "efec": 6208,
      "dialògue": 6209,
      "perspectiva": 6210,
      "explorar": 6211,
      "espanhòu": 6212,
      "definicion": 6213,
      "practicar": 6214,
      "modèle": 6215,
      "Montaner": 6216,
      "XVIII": 6217,
      "hestiva": 6218,
      "Cairn": 6219,
      "taulèr": 6220,
      "règlas": 6221,
      "Manufacture": 6222,
      "expertisa": 6223,
      "faudrá": 6224,
      "Anem": 6225,
      "modalitats": 6226,
      "Usèste": 6227,
      "(.": 6228,
      "48": 6229,
      "5au": 6230,
      "Atencion": 6231,
      "Bra": 6232,
      "Bab": 6233,
      "Banh": 6234,
      "Dim": 6235,
      "Gion": 6236,
      "IM": 6237,
      "Lis": 6238,
      "Pon": 6239,
      "Pensa": 6240,
      "XX": 6241,
      "ale": 6242,
      "ader": 6243,
      "apregon": 6244,
      "aprèp": 6245,
      "blo": 6246,
      "bai": 6247,
      "bòrda": 6248,
      "cru": 6249,
      "ebook": 6250,
      "fri": 6251,
      "fro": 6252,
      "flip": 6253,
      "gt": 6254,
      "het": 6255,
      "jant": 6256,
      "mmes": 6257,
      "rens": 6258,
      "xi": 6259,
      "decora": 6260,
      "rán": 6261,
      "èis": 6262,
      "arque": 6263,
      "armon": 6264,
      "ariá": 6265,
      "orquèstra": 6266,
      "recone": 6267,
      "quets": 6268,
      "usa": 6269,
      "tech": 6270,
      "cot": 6271,
      "cox": 6272,
      "comedi": 6273,
      "èrba": 6274,
      "çant": 6275,
      "toca": 6276,
      "tós": 6277,
      "alfab": 6278,
      "mentre": 6279,
      "2021": 6280,
      "parelh": 6281,
      "podriàs": 6282,
      "peta": 6283,
      "sabor": 6284,
      "duras": 6285,
      "preocu": 6286,
      "cantat": 6287,
      "suspresa": 6288,
      "voi": 6289,
      "mondiau": 6290,
      "exposicions": 6291,
      "dèras": 6292,
      "Aure": 6293,
      "formats": 6294,
      "formula": 6295,
      "tronh": 6296,
      "minja": 6297,
      "Cous": 6298,
      "Coman": 6299,
      "Cosera": 6300,
      "boca": 6301,
      "botica": 6302,
      "bohas": 6303,
      "oblu": 6304,
      "mòda": 6305,
      "luòcs": 6306,
      "1970": 6307,
      "gestion": 6308,
      "seguenta": 6309,
      "Legras": 6310,
      "musicaires": 6311,
      "organizè": 6312,
      "privats": 6313,
      "editors": 6314,
      "aviàs": 6315,
      "aviéner": 6316,
      "immat": 6317,
      "dinas": 6318,
      "Bel": 6319,
      "jornalista": 6320,
      "ficha": 6321,
      "correc": 6322,
      "corric": 6323,
      "sentir": 6324,
      "Viau": 6325,
      "Viatge": 6326,
      "escolar": 6327,
      "estudia": 6328,
      "vòlon": 6329,
      "començat": 6330,
      "tèrna": 6331,
      "2004": 6332,
      "lusion": 6333,
      "Gui": 6334,
      "sòci": 6335,
      "rèia": 6336,
      "mètre": 6337,
      "ÈSCO": 6338,
      "visions": 6339,
      "musique": 6340,
      "express": 6341,
      "populars": 6342,
      "istoricas": 6343,
      "Publicacion": 6344,
      "iniciativas": 6345,
      "Domin": 6346,
      "causir": 6347,
      "formators": 6348,
      "Nontronh": 6349,
      "produsida": 6350,
      "Jacme": 6351,
      "fenir": 6352,
      "mèste": 6353,
      "adaptat": 6354,
      "Rivi": 6355,
      "ritme": 6356,
      "paisatges": 6357,
      "Planta": 6358,
      "Chants": 6359,
      "XIX": 6360,
      "Bruna": 6361,
      "darrièra": 6362,
      "Aglomeracion": 6363,
      "encargada": 6364,
      "recebut": 6365,
      "necessà": 6366,
      "gròs": 6367,
      "regularament": 6368,
      "hialat": 6369,
      "volètz": 6370,
      "existéncia": 6371,
      "XIII": 6372,
      "originaus": 6373,
      "succès": 6374,
      "brut": 6375,
      "UNÈSCO": 6376,
      "Jòrdi": 6377,
      "Geor": 6378,
      "Tròba": 6379,
      "Wilcox": 6380,
      "Trobaretz": 6381,
      "Silvan": 6382,
      "auhèrta": 6383,
      "nombrosas": 6384,
      "rrer": 6385,
      "intermediari": 6386,
      "Assisas": 6387,
      "campanhas": 6388,
      "comusèu": 6389,
      "Éspia": 6390,
      "quotidi": 6391,
      "numérique": 6392,
      "Giono": 6393,
      "Coserans": 6394,
      "42": 6395,
      "AIEO": 6396,
      "Beu": 6397,
      "Blu": 6398,
      "Dòc": 6399,
      "EH": 6400,
      "Gre": 6401,
      "Hen": 6402,
      "IC": 6403,
      "Mala": 6404,
      "Pu": 6405,
      "Plega": 6406,
      "Punt": 6407,
      "QU": 6408,
      "SP": 6409,
      "Sha": 6410,
      "Tòrna": 6411,
      "ahar": 6412,
      "avos": 6413,
      "eles": 6414,
      "emocion": 6415,
      "elèc": 6416,
      "gn": 6417,
      "gro": 6418,
      "hesta": 6419,
      "ier": 6420,
      "iques": 6421,
      "lvia": 6422,
      "omb": 6423,
      "sua": 6424,
      "zon": 6425,
      "tage": 6426,
      "lava": 6427,
      "racions": 6428,
      "aset": 6429,
      "ars": 6430,
      "arma": 6431,
      "archi": 6432,
      "auher": 6433,
      "relats": 6434,
      "dison": 6435,
      "direc": 6436,
      "tiga": 6437,
      "tilhs": 6438,
      "dalena": 6439,
      "ussa": 6440,
      "isses": 6441,
      "cadena": 6442,
      "tejar": 6443,
      "tanlèu": 6444,
      "mais": 6445,
      "maquinas": 6446,
      "condicion": 6447,
      "conilh": 6448,
      "sel": 6449,
      "pole": 6450,
      "poux": 6451,
      "sabes": 6452,
      "meitat": 6453,
      "Lamb": 6454,
      "Laborde": 6455,
      "paral": 6456,
      "chant": 6457,
      "òrtas": 6458,
      "turas": 6459,
      "ths": 6460,
      "ubert": 6461,
      "acha": 6462,
      "ensas": 6463,
      "gratu": 6464,
      "mestres": 6465,
      "modu": 6466,
      "nivo": 6467,
      "tèl": 6468,
      "escur": 6469,
      "esclai": 6470,
      "mineraus": 6471,
      "jorna": 6472,
      "suau": 6473,
      "Cafè": 6474,
      "pòdi": 6475,
      "Daquí": 6476,
      "seguents": 6477,
      "Andro": 6478,
      "baston": 6479,
      "Aqueras": 6480,
      "alara": 6481,
      "gón": 6482,
      "lonja": 6483,
      "Monica": 6484,
      "pausat": 6485,
      "Roqueta": 6486,
      "Magre": 6487,
      "escaduda": 6488,
      "Libe": 6489,
      "sostiéner": 6490,
      "gerir": 6491,
      "batèu": 6492,
      "amassar": 6493,
      "vese": 6494,
      "realizats": 6495,
      "Berg": 6496,
      "veiquí": 6497,
      "Projècte": 6498,
      "Chamin": 6499,
      "folc": 6500,
      "contaires": 6501,
      "corses": 6502,
      "permetut": 6503,
      "cercatz": 6504,
      "Inscri": 6505,
      "sòu": 6506,
      "impossi": 6507,
      "singu": 6508,
      "subvencions": 6509,
      "presentas": 6510,
      "actualiz": 6511,
      "fuèlha": 6512,
      "inici": 6513,
      "pròva": 6514,
      "Peire": 6515,
      "Albert": 6516,
      "utilizat": 6517,
      "lexicau": 6518,
      "gord": 6519,
      "culin": 6520,
      "acompanhament": 6521,
      "sortidas": 6522,
      "Goog": 6523,
      "naturaus": 6524,
      "Vincent": 6525,
      "mèstre": 6526,
      "comanditadas": 6527,
      "passejadas": 6528,
      "scientific": 6529,
      "preciós": 6530,
      "Danças": 6531,
      "cèp": 6532,
      "Brut": 6533,
      "patrimoine": 6534,
      "Dauna": 6535,
      "universitats": 6536,
      "Régionalismes": 6537,
      "dossièrs": 6538,
      "estral": 6539,
      "tecnicas": 6540,
      "Campestral": 6541,
      "contunhar": 6542,
      "Creat": 6543,
      "pertrèits": 6544,
      "versari": 6545,
      "usatgièrs": 6546,
      "Objec": 6547,
      "hestejar": 6548,
      "Euskadi": 6549,
      "Rosselhon": 6550,
      "guidadas": 6551,
      "traductors": 6552,
      "patrimoniau": 6553,
      "Mercadier": 6554,
      "interessant": 6555,
      "salvat": 6556,
      "culturel": 6557,
      "aürós": 6558,
      "frotjar": 6559,
      "Gonzales": 6560,
      "antropologia": 6561,
      "escambiar": 6562,
      "bilingües": 6563,
      "Segur": 6564,
      "facili": 6565,
      "Clément": 6566,
      "Antony": 6567,
      "oregion": 6568,
      "Lionel": 6569,
      "Desvolopament": 6570,
      "Périgord": 6571,
      "amuisha": 6572,
      "Gascogne": 6573,
      "responsabilitat": 6574,
      "consequéncias": 6575,
      "Gustau": 6576,
      "Rambalh": 6577,
      "avenidor": 6578,
      "Sílvia": 6579,
      "flipbook": 6580,
      "Legrasse": 6581,
      "elèctro": 6582,
      "DaquíDòc": 6583,
      "Google": 6584,
      "\".": 6585,
      "*/": 6586,
      "/*": 6587,
      "89": 6588,
      "AI": 6589,
      "Boc": 6590,
      "DN": 6591,
      "Ey": 6592,
      "GU": 6593,
      "IV": 6594,
      "Ké": 6595,
      "Lista": 6596,
      "Mso": 6597,
      "Mac": 6598,
      "Nauta": 6599,
      "Puèi": 6600,
      "Pòle": 6601,
      "Ram": 6602,
      "Rap": 6603,
      "SS": 6604,
      "Style": 6605,
      "Saussa": 6606,
      "Ur": 6607,
      "Us": 6608,
      "Uz": 6609,
      "Ví": 6610,
      "Web": 6611,
      "ami": 6612,
      "api": 6613,
      "agut": 6614,
      "aprés": 6615,
      "ee": 6616,
      "eli": 6617,
      "ega": 6618,
      "gus": 6619,
      "gèra": 6620,
      "gru": 6621,
      "h00": 6622,
      "h30": 6623,
      "mur": 6624,
      "nè": 6625,
      "ologic": 6626,
      "saussa": 6627,
      "udas": 6628,
      "udia": 6629,
      "vatge": 6630,
      "̂t": 6631,
      "dega": 6632,
      "dejós": 6633,
      "laissa": 6634,
      "racontes": 6635,
      "quèt": 6636,
      "cièrs": 6637,
      "auton": 6638,
      "representacion": 6639,
      "ditat": 6640,
      "digó": 6641,
      "til": 6642,
      "tique": 6643,
      "rine": 6644,
      "davan": 6645,
      "cad": 6646,
      "cale": 6647,
      "liç": 6648,
      "limp": 6649,
      "colat": 6650,
      "mamà": 6651,
      "leons": 6652,
      "pertòca": 6653,
      "contan": 6654,
      "seman": 6655,
      "séncia": 6656,
      "toma": 6657,
      "tole": 6658,
      "quita": 6659,
      "quitat": 6660,
      "ales": 6661,
      "vielh": 6662,
      "occitanista": 6663,
      "ostau": 6664,
      "gali": 6665,
      "range": 6666,
      "sou": 6667,
      "sabe": 6668,
      "sabut": 6669,
      "vadó": 6670,
      "miègjorn": 6671,
      "desca": 6672,
      "chèc": 6673,
      "mencion": 6674,
      "mentat": 6675,
      "menut": 6676,
      "mentàrias": 6677,
      "versar": 6678,
      "terre": 6679,
      "veau": 6680,
      "velle": 6681,
      "canton": 6682,
      "ishs": 6683,
      "mestre": 6684,
      "musas": 6685,
      "vend": 6686,
      "voli": 6687,
      "dolen": 6688,
      "aba": 6689,
      "neish": 6690,
      "nego": 6691,
      "exac": 6692,
      "dèm": 6693,
      "dèmias": 6694,
      "Aucèu": 6695,
      "éncer": 6696,
      "bala": 6697,
      "minoriz": 6698,
      "Coz": 6699,
      "Comitat": 6700,
      "Comelo": 6701,
      "visar": 6702,
      "mattan": 6703,
      "estatut": 6704,
      "lui": 6705,
      "Tomieu": 6706,
      "Tozy": 6707,
      "misteri": 6708,
      "Dempuèi": 6709,
      "valors": 6710,
      "arrèr": 6711,
      "Lassa": 6712,
      "Jose": 6713,
      "policièr": 6714,
      "hemna": 6715,
      "Francis": 6716,
      "jove": 6717,
      "immen": 6718,
      "fice": 6719,
      "Març": 6720,
      "senti": 6721,
      "Navar": 6722,
      "Vielha": 6723,
      "presentats": 6724,
      "presentaràn": 6725,
      "brièr": 6726,
      "Born": 6727,
      "Madier": 6728,
      "ity": 6729,
      "cossí": 6730,
      "quants": 6731,
      "tivada": 6732,
      "junar": 6733,
      "ueitau": 6734,
      "vesins": 6735,
      "vestits": 6736,
      "rondèu": 6737,
      "uèit": 6738,
      "hèits": 6739,
      "Sop": 6740,
      "Soli": 6741,
      "Nosta": 6742,
      "artisticas": 6743,
      "chilhièr": 6744,
      "espèr": 6745,
      "folk": 6746,
      "contada": 6747,
      "Boissi": 6748,
      "Gardy": 6749,
      "agri": 6750,
      "blau": 6751,
      "subjèctes": 6752,
      "Verbale": 6753,
      "pòrtan": 6754,
      "Dutech": 6755,
      "tícia": 6756,
      "Peiti": 6757,
      "quinze": 6758,
      "tematics": 6759,
      "utilizators": 6760,
      "Negre": 6761,
      "reglament": 6762,
      "reggae": 6763,
      "signada": 6764,
      "caminar": 6765,
      "difusar": 6766,
      "debanè": 6767,
      "mestièrs": 6768,
      "Europe": 6769,
      "Aussa": 6770,
      "milions": 6771,
      "causidas": 6772,
      "TEC": 6773,
      "istoire": 6774,
      "estranha": 6775,
      "fenirà": 6776,
      "mèstra": 6777,
      "ositat": 6778,
      "Consul": 6779,
      "ritmes": 6780,
      "sensibilizar": 6781,
      "Collòqui": 6782,
      "Folk": 6783,
      "API": 6784,
      "chapèu": 6785,
      "posca": 6786,
      "representacions": 6787,
      "amassè": 6788,
      "Civada": 6789,
      "necessari": 6790,
      "Fédé": 6791,
      "PEM": 6792,
      "curiós": 6793,
      "volèva": 6794,
      "durmir": 6795,
      "cambiat": 6796,
      "Veiquí": 6797,
      "interpretacion": 6798,
      "AEPEM": 6799,
      "NormalTable": 6800,
      "Prum": 6801,
      "Florian": 6802,
      "intervienents": 6803,
      "Espiatz": 6804,
      "aquitans": 6805,
      "continuitat": 6806,
      "crotzada": 6807,
      "tablèus": 6808,
      "manuscrits": 6809,
      "Bruno": 6810,
      "significa": 6811,
      "neneton": 6812,
      "començants": 6813,
      "didac": 6814,
      "episòdi": 6815,
      "Europèas": 6816,
      "Magdalena": 6817,
      "Felibritge": 6818,
      "dificultats": 6819,
      "elaboracion": 6820,
      "Office": 6821,
      "calandreta": 6822,
      "exprimir": 6823,
      "Definitions": 6824,
      "pilotatge": 6825,
      "Beranon": 6826,
      "Laurenç": 6827,
      "Viaule": 6828,
      "Dominique": 6829,
      "Rivière": 6830,
      "Kévin": 6831,
      "MsoNormalTable": 6832,
      "Comelodians": 6833,
      "Navarra": 6834,
      "43": 6835,
      "56": 6836,
      "62": 6837,
      "Amor": 6838,
      "Burg": 6839,
      "Clar": 6840,
      "Emb": 6841,
      "Gausas": 6842,
      "Gròs": 6843,
      "Hé": 6844,
      "Heda": 6845,
      "Je": 6846,
      "Mani": 6847,
      "Phon": 6848,
      "Plana": 6849,
      "Roc": 6850,
      "Tos": 6851,
      "VI": 6852,
      "aguèt": 6853,
      "apera": 6854,
      "bèu": 6855,
      "clus": 6856,
      "evoc": 6857,
      "gei": 6858,
      "grè": 6859,
      "hora": 6860,
      "iat": 6861,
      "luna": 6862,
      "od": 6863,
      "psi": 6864,
      "plica": 6865,
      "€,": 6866,
      "dele": 6867,
      "encorat": 6868,
      "rala": 6869,
      "rasons": 6870,
      "eston": 6871,
      "cicles": 6872,
      "remira": 6873,
      "dios": 6874,
      "diver": 6875,
      "dicta": 6876,
      "tima": 6877,
      "tial": 6878,
      "ato": 6879,
      "ritu": 6880,
      "rís": 6881,
      "ribar": 6882,
      "usin": 6883,
      "cam": 6884,
      "ligat": 6885,
      "tani": 6886,
      "max": 6887,
      "levat": 6888,
      "conductor": 6889,
      "contrib": 6890,
      "çats": 6891,
      "seu": 6892,
      "sega": 6893,
      "halha": 6894,
      "haire": 6895,
      "éditions": 6896,
      "oses": 6897,
      "gador": 6898,
      "guèra": 6899,
      "meravi": 6900,
      "sonò": 6901,
      "tàs": 6902,
      "row": 6903,
      "ranlà": 6904,
      "pol": 6905,
      "perar": 6906,
      "paire": 6907,
      "mitan": 6908,
      "desc": 6909,
      "descripcion": 6910,
      "Òs": 6911,
      "term": 6912,
      "nocion": 6913,
      "notar": 6914,
      "dow": 6915,
      "dotze": 6916,
      "orsas": 6917,
      "urn": 6918,
      "extr": 6919,
      "tèmas": 6920,
      "minerau": 6921,
      "hargar": 6922,
      "Colle": 6923,
      "bolhar": 6924,
      "obèrtas": 6925,
      "drech": 6926,
      "euve": 6927,
      "Cali": 6928,
      "piques": 6929,
      "chambra": 6930,
      "ludi": 6931,
      "gener": 6932,
      "Unesco": 6933,
      "valhas": 6934,
      "plantas": 6935,
      "planeta": 6936,
      "fondat": 6937,
      "fondacion": 6938,
      "òck": 6939,
      "basas": 6940,
      "bascos": 6941,
      "animats": 6942,
      "raud": 6943,
      "amuish": 6944,
      "lingüista": 6945,
      "uel": 6946,
      "joan": 6947,
      "joena": 6948,
      "Aqueles": 6949,
      "avida": 6950,
      "Assemblada": 6951,
      "Villen": 6952,
      "Organizators": 6953,
      "alament": 6954,
      "comunic": 6955,
      "Liura": 6956,
      "saune": 6957,
      "bana": 6958,
      "gramatic": 6959,
      "tròban": 6960,
      "tiengut": 6961,
      "Memò": 6962,
      "regional": 6963,
      "vesin": 6964,
      "realizacions": 6965,
      "Mira": 6966,
      "unitats": 6967,
      "2001": 6968,
      "Casau": 6969,
      "fòne": 6970,
      "estagiaris": 6971,
      "enquèstas": 6972,
      "Peti": 6973,
      "vòstras": 6974,
      "academ": 6975,
      "RDAE": 6976,
      "certi": 6977,
      "Rescon": 6978,
      "Merchat": 6979,
      "Luishon": 6980,
      "filmat": 6981,
      "Verd": 6982,
      "class": 6983,
      "sang": 6984,
      "Basa": 6985,
      "prepausats": 6986,
      "Ès": 6987,
      "inscriuts": 6988,
      "Dufau": 6989,
      "trabalhat": 6990,
      "Albi": 6991,
      "quinz": 6992,
      "contrari": 6993,
      "avançar": 6994,
      "utilizan": 6995,
      "primièrs": 6996,
      "signatura": 6997,
      "estelas": 6998,
      "object": 6999,
      "CORDAE": 7000,
      "Titol": 7001,
      "completament": 7002,
      "pichon": 7003,
      "pichons": 7004,
      "participatiu": 7005,
      "Sabres": 7006,
      "Laü": 7007,
      "possibilitat": 7008,
      "sortits": 7009,
      "ESCO": 7010,
      "maridar": 7011,
      "sector": 7012,
      "Benaset": 7013,
      "europèas": 7014,
      "principis": 7015,
      "ériel": 7016,
      "adaptada": 7017,
      "chausa": 7018,
      "comanda": 7019,
      "catalana": 7020,
      "Danç": 7021,
      "Jaume": 7022,
      "Jaurés": 7023,
      "Prima": 7024,
      "horni": 7025,
      "plea": 7026,
      "Morlanés": 7027,
      "assegura": 7028,
      "tocar": 7029,
      "avoi": 7030,
      "Lingua": 7031,
      "Faranlà": 7032,
      "Labarrère": 7033,
      "modèrnes": 7034,
      "amassat": 7035,
      "responsable": 7036,
      "imaginar": 7037,
      "integrar": 7038,
      "contact": 7039,
      "listas": 7040,
      "podián": 7041,
      "arribè": 7042,
      "podèva": 7043,
      "desvelo": 7044,
      "efèit": 7045,
      "anóncia": 7046,
      "urgéncia": 7047,
      "produits": 7048,
      "preparar": 7049,
      "meteis": 7050,
      "calhau": 7051,
      "zio": 7052,
      "enradigada": 7053,
      "Harmattan": 7054,
      "Béarn": 7055,
      "Emman": 7056,
      "ministre": 7057,
      "economica": 7058,
      "béarnais": 7059,
      "clope": 7060,
      "desbromb": 7061,
      "indispensable": 7062,
      "vicepresident": 7063,
      "metratge": 7064,
      "Talhèr": 7065,
      "apròchi": 7066,
      "videos": 7067,
      "Bibliotèca": 7068,
      "crane": 7069,
      "quartièr": 7070,
      "Collègi": 7071,
      "Adour": 7072,
      "ciutadan": 7073,
      "Produsida": 7074,
      "Nuits": 7075,
      "Escaudas": 7076,
      "Garburada": 7077,
      "evolucions": 7078,
      "Banhèras": 7079,
      "immatériel": 7080,
      "nivols": 7081,
      "Solide": 7082,
      "Hedàs": 7083,
      "Villeneuve": 7084,
      "//": 7085,
      "90": 7086,
      "://": 7087,
      "AL": 7088,
      "AM": 7089,
      "Arà": 7090,
      "Bap": 7091,
      "CP": 7092,
      "Cossi": 7093,
      "DR": 7094,
      "PS": 7095,
      "Peu": 7096,
      "Puech": 7097,
      "St": 7098,
      "Tula": 7099,
      "Tèrra": 7100,
      "Xavi": 7101,
      "Xart": 7102,
      "Xola": 7103,
      "aj": 7104,
      "adieu": 7105,
      "ez": 7106,
      "eis": 7107,
      "eval": 7108,
      "fos": 7109,
      "gè": 7110,
      "hen": 7111,
      "hesti": 7112,
      "igne": 7113,
      "jaire": 7114,
      "llon": 7115,
      "nan": 7116,
      "sètz": 7117,
      "scen": 7118,
      "tte": 7119,
      "uri": 7120,
      "vse": 7121,
      "̂me": 7122,
      "decla": 7123,
      "degut": 7124,
      "determin": 7125,
      "engan": 7126,
      "taina": 7127,
      "lama": 7128,
      "rapi": 7129,
      "quala": 7130,
      "èia": 7131,
      "estant": 7132,
      "arqui": 7133,
      "ordina": 7134,
      "reci": 7135,
      "remp": 7136,
      "reforma": 7137,
      "rebat": 7138,
      "dí": 7139,
      "diri": 7140,
      "dín": 7141,
      "tiquitat": 7142,
      "ridi": 7143,
      "ines": 7144,
      "inar": 7145,
      "incredi": 7146,
      "dalha": 7147,
      "caval": 7148,
      "teat": 7149,
      "cojas": 7150,
      "lem": 7151,
      "èrcs": 7152,
      "ocra": 7153,
      "ocean": 7154,
      "tou": 7155,
      "siatz": 7156,
      "vièlhs": 7157,
      "tuar": 7158,
      "tradus": 7159,
      "naf": 7160,
      "metut": 7161,
      "rants": 7162,
      "solet": 7163,
      "pomas": 7164,
      "sabi": 7165,
      "vacas": 7166,
      "ulle": 7167,
      "gièra": 7168,
      "Lara": 7169,
      "Lavetz": 7170,
      "migra": 7171,
      "progrès": 7172,
      "ciada": 7173,
      "chic": 7174,
      "chanta": 7175,
      "Òme": 7176,
      "Òmis": 7177,
      "verda": 7178,
      "dissa": 7179,
      "distribu": 7180,
      "irs": 7181,
      "preser": 7182,
      "motor": 7183,
      "tartuga": 7184,
      "izacion": 7185,
      "vora": 7186,
      "dosa": 7187,
      "dós": 7188,
      "abon": 7189,
      "neti": 7190,
      "escéncia": 7191,
      "cultural": 7192,
      "trus": 7193,
      "tòmes": 7194,
      "denta": 7195,
      "Colo": 7196,
      "seriós": 7197,
      "lizats": 7198,
      "bot": 7199,
      "obre": 7200,
      "lingua": 7201,
      "fajas": 7202,
      "cargat": 7203,
      "Arreda": 7204,
      "Arrens": 7205,
      "pòc": 7206,
      "pias": 7207,
      "luxe": 7208,
      "diagnostic": 7209,
      "trilingüe": 7210,
      "Tomàs": 7211,
      "finau": 7212,
      "Demèt": 7213,
      "larg": 7214,
      "interprè": 7215,
      "tiste": 7216,
      "And": 7217,
      "Lec": 7218,
      "bretona": 7219,
      "putz": 7220,
      "Ors": 7221,
      "Franc": 7222,
      "pris": 7223,
      "corrector": 7224,
      "Marsan": 7225,
      "Navalhas": 7226,
      "alavetz": 7227,
      "Montre": 7228,
      "reno": 7229,
      "briu": 7230,
      "sostitolat": 7231,
      "estú": 7232,
      "batz": 7233,
      "Diriam": 7234,
      "bandas": 7235,
      "enterpresas": 7236,
      "Passatge": 7237,
      "mentala": 7238,
      "arribèra": 7239,
      "Aimariá": 7240,
      "ueits": 7241,
      "vesi": 7242,
      "realizar": 7243,
      "ronda": 7244,
      "Podes": 7245,
      "vienguts": 7246,
      "còrdas": 7247,
      "especialista": 7248,
      "2002": 7249,
      "febrièr": 7250,
      "fòrta": 7251,
      "autorn": 7252,
      "sòlo": 7253,
      "impli": 7254,
      "Febus": 7255,
      "etapas": 7256,
      "etapa": 7257,
      "fuòc": 7258,
      "Cantas": 7259,
      "Cantal": 7260,
      "tranqui": 7261,
      "Duas": 7262,
      "pròpis": 7263,
      "Chau": 7264,
      "poètas": 7265,
      "aprenents": 7266,
      "lums": 7267,
      "discuti": 7268,
      "ilhs": 7269,
      "Mich": 7270,
      "miejan": 7271,
      "general": 7272,
      "ESPE": 7273,
      "Maurice": 7274,
      "engatjaments": 7275,
      "Torna": 7276,
      "peschar": 7277,
      "Acadèmia": 7278,
      "importància": 7279,
      "pistas": 7280,
      "quaran": 7281,
      "toponimic": 7282,
      "vernha": 7283,
      "fisança": 7284,
      "comprés": 7285,
      "interèssa": 7286,
      "multilingüe": 7287,
      "consultacion": 7288,
      "laume": 7289,
      "procès": 7290,
      "gròssa": 7291,
      "resultats": 7292,
      "sociolinguistica": 7293,
      "convivi": 7294,
      "contacte": 7295,
      "legenda": 7296,
      "poetic": 7297,
      "contunha": 7298,
      "collaboratiu": 7299,
      "amusant": 7300,
      "afir": 7301,
      "conservatòri": 7302,
      "TAL": 7303,
      "anonci": 7304,
      "dispositius": 7305,
      "Guilhemjoan": 7306,
      "Valé": 7307,
      "autanlèu": 7308,
      "Caban": 7309,
      "preparacion": 7310,
      "nombrós": 7311,
      "Universitats": 7312,
      "Tanben": 7313,
      "ratificacion": 7314,
      "inauguracion": 7315,
      "quilomètre": 7316,
      "solucions": 7317,
      "subretot": 7318,
      "economia": 7319,
      "Gonzalès": 7320,
      "Gairal": 7321,
      "enriquir": 7322,
      "malaisat": 7323,
      "calendari": 7324,
      "indepen": 7325,
      "discussions": 7326,
      "Adishatz": 7327,
      "htt": 7328,
      "traditionne": 7329,
      "majoritat": 7330,
      "Politica": 7331,
      "champanh": 7332,
      "Guillaume": 7333,
      "congòs": 7334,
      "Cornemuse": 7335,
      "Autonada": 7336,
      "Gèuna": 7337,
      "córrer": 7338,
      "territorialas": 7339,
      "Dimèrcs": 7340,
      "module": 7341,
      "GUA": 7342,
      "Víver": 7343,
      "Aussalesa": 7344,
      "Fédérop": 7345,
      "Colleccion": 7346,
      "Aràmits": 7347,
      "Arredalh": 7348,
      "Demètri": 7349,
      "A2": 7350,
      "AG": 7351,
      "Ans": 7352,
      "ET": 7353,
      "Edicion": 7354,
      "Fòr": 7355,
      "Festival": 7356,
      "Hei": 7357,
      "Hage": 7358,
      "Hart": 7359,
      "Jorn": 7360,
      "Lon": 7361,
      "Lub": 7362,
      "Memb": 7363,
      "OM": 7364,
      "Pir": 7365,
      "Pur": 7366,
      "Sac": 7367,
      "Sénher": 7368,
      "Uèi": 7369,
      "VA": 7370,
      "aran": 7371,
      "biz": 7372,
      "cy": 7373,
      "evò": 7374,
      "hats": 7375,
      "hant": 7376,
      "ime": 7377,
      "ipo": 7378,
      "ièra": 7379,
      "iver": 7380,
      "itats": 7381,
      "pria": 7382,
      "patz": 7383,
      "praub": 7384,
      "sè": 7385,
      "umana": 7386,
      "ujan": 7387,
      "demes": 7388,
      "demor": 7389,
      "ence": 7390,
      "endoman": 7391,
      "onèr": 7392,
      "talia": 7393,
      "lans": 7394,
      "eschan": 7395,
      "espauru": 7396,
      "assas": 7397,
      "eré": 7398,
      "armada": 7399,
      "anam": 7400,
      "auten": 7401,
      "revis": 7402,
      "reina": 7403,
      "republican": 7404,
      "retrobatz": 7405,
      "dise": 7406,
      "qués": 7407,
      "time": 7408,
      "rimas": 7409,
      "ustilhs": 7410,
      "teta": 7411,
      "coi": 7412,
      "sadas": 7413,
      "tantas": 7414,
      "malh": 7415,
      "ley": 7416,
      "legu": 7417,
      "perque": 7418,
      "ço": 7419,
      "seradas": 7420,
      "halie": 7421,
      "sit": 7422,
      "sièis": 7423,
      "tud": 7424,
      "Quar": 7425,
      "Quora": 7426,
      "meto": 7427,
      "restitucion": 7428,
      "robatz": 7429,
      "rantas": 7430,
      "àr": 7431,
      "pai": 7432,
      "pacion": 7433,
      "miu": 7434,
      "manjar": 7435,
      "charn": 7436,
      "òrci": 7437,
      "menada": 7438,
      "verb": 7439,
      "aimar": 7440,
      "airau": 7441,
      "aicí": 7442,
      "cans": 7443,
      "Espin": 7444,
      "tesaur": 7445,
      "grasi": 7446,
      "vocacion": 7447,
      "voide": 7448,
      "monta": 7449,
      "exteri": 7450,
      "Conte": 7451,
      "mail": 7452,
      "Auriá": 7453,
      "èita": 7454,
      "forn": 7455,
      "culturala": 7456,
      "fièra": 7457,
      "viscut": 7458,
      "suènh": 7459,
      "favora": 7460,
      "Arsac": 7461,
      "estatu": 7462,
      "tendéncia": 7463,
      "chabar": 7464,
      "gente": 7465,
      "valent": 7466,
      "espelir": 7467,
      "critica": 7468,
      "Segon": 7469,
      "politics": 7470,
      "Paulin": 7471,
      "captar": 7472,
      "cordeon": 7473,
      "corrent": 7474,
      "talèra": 7475,
      "ensenhaments": 7476,
      "Mondinas": 7477,
      "escota": 7478,
      "prepausada": 7479,
      "participan": 7480,
      "Diplòma": 7481,
      "mercia": 7482,
      "elejuts": 7483,
      "transpòrt": 7484,
      "desvolopat": 7485,
      "mentada": 7486,
      "arrés": 7487,
      "tienne": 7488,
      "vestit": 7489,
      "cinta": 7490,
      "cincau": 7491,
      "abril": 7492,
      "Parpalh": 7493,
      "fòto": 7494,
      "cantaire": 7495,
      "Chadièra": 7496,
      "èlhas": 7497,
      "acadèmias": 7498,
      "Bois": 7499,
      "auràs": 7500,
      "sòl": 7501,
      "consacradas": 7502,
      "fugi": 7503,
      "Lesfar": 7504,
      "Artistica": 7505,
      "valoriza": 7506,
      "calis": 7507,
      "parlars": 7508,
      "Balèti": 7509,
      "iff": 7510,
      "signa": 7511,
      "lumin": 7512,
      "pintra": 7513,
      "darrèras": 7514,
      "Jacinta": 7515,
      "Corsega": 7516,
      "contemporanèas": 7517,
      "contents": 7518,
      "complement": 7519,
      "completar": 7520,
      "1990": 7521,
      "militants": 7522,
      "umanitat": 7523,
      "partatjat": 7524,
      "Maurin": 7525,
      "Vint": 7526,
      "adoba": 7527,
      "desira": 7528,
      "paisans": 7529,
      "organizators": 7530,
      "vián": 7531,
      "René": 7532,
      "chamison": 7533,
      "Bretanha": 7534,
      "guardar": 7535,
      "Nicolau": 7536,
      "Departamentaus": 7537,
      "imaginari": 7538,
      "afichas": 7539,
      "ambicion": 7540,
      "volontaris": 7541,
      "JojaMerchat": 7542,
      "institucionau": 7543,
      "avançadas": 7544,
      "collaborativa": 7545,
      "cambiar": 7546,
      "Licéncia": 7547,
      "Vesera": 7548,
      "igno": 7549,
      "especializat": 7550,
      "ystem": 7551,
      "caracter": 7552,
      "testimòni": 7553,
      "papà": 7554,
      "mobilizacion": 7555,
      "Ceci": 7556,
      "UNESCO": 7557,
      "ausir": 7558,
      "proteccion": 7559,
      "conjugason": 7560,
      "costumas": 7561,
      "iridi": 7562,
      "prumièr": 7563,
      "Fèliç": 7564,
      "ataca": 7565,
      "celèbra": 7566,
      "arrestat": 7567,
      "metòdes": 7568,
      "internacionaus": 7569,
      "cambiament": 7570,
      "Blanc": 7571,
      "feminin": 7572,
      "garriga": 7573,
      "transfronter": 7574,
      "Retrobatz": 7575,
      "Swif": 7576,
      "Montaigne": 7577,
      "Cristian": 7578,
      "LINGUA": 7579,
      "DCL": 7580,
      "hestaus": 7581,
      "parallè": 7582,
      "tolerància": 7583,
      "Peitieus": 7584,
      "Liurament": 7585,
      "Laüsa": 7586,
      "Baptiste": 7587,
      "Cossí": 7588,
      "DRAC": 7589,
      "ulletin": 7590,
      "Montrejau": 7591,
      "LINGUATEC": 7592,
      "0pt": 7593,
      "1000": 7594,
      "BI": 7595,
      "Bis": 7596,
      "Baris": 7597,
      "Chi": 7598,
      "Ep": 7599,
      "FO": 7600,
      "Fla": 7601,
      "Fil": 7602,
      "Festen": 7603,
      "Ha": 7604,
      "Imp": 7605,
      "Jules": 7606,
      "Lum": 7607,
      "Maire": 7608,
      "Pros": 7609,
      "Restau": 7610,
      "Torn": 7611,
      "az": 7612,
      "alar": 7613,
      "barr": 7614,
      "cf": 7615,
      "cèrta": 7616,
      "eter": 7617,
      "epic": 7618,
      "flòc": 7619,
      "gèt": 7620,
      "ix": 7621,
      "key": 7622,
      "ofi": 7623,
      "oms": 7624,
      "oèst": 7625,
      "pli": 7626,
      "plat": 7627,
      "von": 7628,
      "yrat": 7629,
      "̂que": 7630,
      "̂tre": 7631,
      "deso": 7632,
      "decin": 7633,
      "demias": 7634,
      "entin": 7635,
      "onde": 7636,
      "tac": 7637,
      "laire": 7638,
      "laires": 7639,
      "lavetz": 7640,
      "rap": 7641,
      "esque": 7642,
      "esqui": 7643,
      "cipe": 7644,
      "erò": 7645,
      "erry": 7646,
      "autar": 7647,
      "autora": 7648,
      "aubres": 7649,
      "referéncias": 7650,
      "òda": 7651,
      "òli": 7652,
      "dig": 7653,
      "dius": 7654,
      "diplo": 7655,
      "diplòma": 7656,
      "tièra": 7657,
      "tidas": 7658,
      "lós": 7659,
      "loux": 7660,
      "darà": 7661,
      "damb": 7662,
      "cob": 7663,
      "coer": 7664,
      "comitat": 7665,
      "comentaris": 7666,
      "maga": 7667,
      "malu": 7668,
      "mapu": 7669,
      "eix": 7670,
      "léncia": 7671,
      "çans": 7672,
      "quilha": 7673,
      "alpenc": 7674,
      "tuala": 7675,
      "tualiz": 7676,
      "gags": 7677,
      "trapat": 7678,
      "guères": 7679,
      "metau": 7680,
      "metem": 7681,
      "medecin": 7682,
      "restitu": 7683,
      "parçans": 7684,
      "Localis": 7685,
      "çai": 7686,
      "çada": 7687,
      "vament": 7688,
      "gièras": 7689,
      "pays": 7690,
      "mièr": 7691,
      "lanas": 7692,
      "lançar": 7693,
      "veri": 7694,
      "ubado": 7695,
      "acte": 7696,
      "vêque": 7697,
      "Estats": 7698,
      "Escambi": 7699,
      "izar": 7700,
      "abo": 7701,
      "abséncia": 7702,
      "montar": 7703,
      "Contin": 7704,
      "mairau": 7705,
      "Aquiu": 7706,
      "harí": 7707,
      "lèx": 7708,
      "pausi": 7709,
      "Cour": 7710,
      "Coiff": 7711,
      "botan": 7712,
      "drets": 7713,
      "sug": 7714,
      "sucre": 7715,
      "còl": 7716,
      "còdis": 7717,
      "fam": 7718,
      "marcar": 7719,
      "pòcha": 7720,
      "pira": 7721,
      "pís": 7722,
      "mòde": 7723,
      "tropè": 7724,
      "juda": 7725,
      "jugaire": 7726,
      "rectora": 7727,
      "òstra": 7728,
      "segueish": 7729,
      "fone": 7730,
      "Quant": 7731,
      "Ange": 7732,
      "pony": 7733,
      "Pausa": 7734,
      "organizats": 7735,
      "privat": 7736,
      "Occitanie": 7737,
      "Beau": 7738,
      "plaças": 7739,
      "pense": 7740,
      "passan": 7741,
      "empor": 7742,
      "Monde": 7743,
      "renavida": 7744,
      "Roer": 7745,
      "Roger": 7746,
      "dormi": 7747,
      "Borrom": 7748,
      "prepausadas": 7749,
      "titud": 7750,
      "escala": 7751,
      "geria": 7752,
      "nauta": 7753,
      "Dimars": 7754,
      "embe": 7755,
      "consta": 7756,
      "ders": 7757,
      "ionat": 7758,
      "sasons": 7759,
      "realizator": 7760,
      "apèrs": 7761,
      "Pour": 7762,
      "Podèm": 7763,
      "vienguda": 7764,
      "colleccions": 7765,
      "collectivitat": 7766,
      "talhièrs": 7767,
      "femnas": 7768,
      "Castanha": 7769,
      "Sou": 7770,
      "publicacions": 7771,
      "estile": 7772,
      "amorós": 7773,
      "Guèrra": 7774,
      "blament": 7775,
      "Vernet": 7776,
      "fugu": 7777,
      "fuèlhas": 7778,
      "Cançon": 7779,
      "parlada": 7780,
      "utilizada": 7781,
      "Teatre": 7782,
      "maugrat": 7783,
      "Balloux": 7784,
      "tornè": 7785,
      "intelli": 7786,
      "identa": 7787,
      "caminament": 7788,
      "BaTel": 7789,
      "passadas": 7790,
      "istorian": 7791,
      "enregistradas": 7792,
      "Micha": 7793,
      "patron": 7794,
      "CFPCI": 7795,
      "Sama": 7796,
      "Presidenta": 7797,
      "decisions": 7798,
      "comprene": 7799,
      "avèvam": 7800,
      "sciéncias": 7801,
      "hicats": 7802,
      "electro": 7803,
      "Accents": 7804,
      "Charline": 7805,
      "honts": 7806,
      "documentacion": 7807,
      "desiran": 7808,
      "sollici": 7809,
      "importanta": 7810,
      "contiengut": 7811,
      "Terral": 7812,
      "Mémo": 7813,
      "Peirigüers": 7814,
      "democra": 7815,
      "inspiracion": 7816,
      "foncionament": 7817,
      "consulta": 7818,
      "Còrpus": 7819,
      "immersiu": 7820,
      "craba": 7821,
      "laçament": 7822,
      "complèt": 7823,
      "pirenenc": 7824,
      "purmèrs": 7825,
      "Forni": 7826,
      "Robert": 7827,
      "beròja": 7828,
      "Fabre": 7829,
      "Vene": 7830,
      "jaune": 7831,
      "Christine": 7832,
      "normau": 7833,
      "institucionaus": 7834,
      "concerni": 7835,
      "apropri": 7836,
      "Prepausa": 7837,
      "occitanofòne": 7838,
      "interessats": 7839,
      "produchs": 7840,
      "continuar": 7841,
      "Fijac": 7842,
      "deputats": 7843,
      "vàler": 7844,
      "esquèrra": 7845,
      "detalhs": 7846,
      "neurit": 7847,
      "significacion": 7848,
      "començant": 7849,
      "chocolat": 7850,
      "presidenta": 7851,
      "celèbre": 7852,
      "cercaire": 7853,
      "episòdis": 7854,
      "Nathalie": 7855,
      "automaticament": 7856,
      "metòde": 7857,
      "Escotar": 7858,
      "Caroline": 7859,
      "civilizacion": 7860,
      "testimoniatges": 7861,
      "vrespada": 7862,
      "velhadas": 7863,
      "phane": 7864,
      "Château": 7865,
      "Facebook": 7866,
      "deliciós": 7867,
      "comparar": 7868,
      "capable": 7869,
      "Stéphane": 7870,
      "Thierry": 7871,
      "Comanditadas": 7872,
      "Georges": 7873,
      "mestresa": 7874,
      "jornalas": 7875,
      "Android": 7876,
      "cèpta": 7877,
      "Calicòt": 7878,
      "quinzenat": 7879,
      "Andòrra": 7880,
      "Micheu": 7881,
      "Lubat": 7882,
      "Swift": 7883,
      "Localisatz": 7884,
      "Coiffée": 7885,
      "BaTelÒc": 7886,
      "600": 7887,
      "79": 7888,
      "Af": 7889,
      "Ava": 7890,
      "Atal": 7891,
      "Amer": 7892,
      "Aperi": 7893,
      "ADE": 7894,
      "Bru": 7895,
      "Bard": 7896,
      "Cy": 7897,
      "Cle": 7898,
      "Cèr": 7899,
      "Dj": 7900,
      "Dètz": 7901,
      "Deix": 7902,
      "EA": 7903,
      "Erau": 7904,
      "EPCI": 7905,
      "Elèna": 7906,
      "Gor": 7907,
      "Gras": 7908,
      "Nas": 7909,
      "Pin": 7910,
      "Pal": 7911,
      "Pòrts": 7912,
      "Ru": 7913,
      "Ras": 7914,
      "Rab": 7915,
      "REN": 7916,
      "Sara": 7917,
      "Tab": 7918,
      "Tren": 7919,
      "Tag": 7920,
      "UOE": 7921,
      "Zin": 7922,
      "clat": 7923,
      "drac": 7924,
      "fanta": 7925,
      "fré": 7926,
      "gents": 7927,
      "hra": 7928,
      "horn": 7929,
      "hòrta": 7930,
      "ies": 7931,
      "icion": 7932,
      "ians": 7933,
      "jon": 7934,
      "king": 7935,
      "nò": 7936,
      "nei": 7937,
      "omia": 7938,
      "ròck": 7939,
      "sant": 7940,
      "tun": 7941,
      "ucion": 7942,
      "ya": 7943,
      "yes": 7944,
      "deras": 7945,
      "deviá": 7946,
      "dejunar": 7947,
      "ono": 7948,
      "raconte": 7949,
      "quèn": 7950,
      "espa": 7951,
      "esvar": 7952,
      "espasa": 7953,
      "auràn": 7954,
      "recamp": 7955,
      "retirada": 7956,
      "inat": 7957,
      "inqui": 7958,
      "inièr": 7959,
      "daiss": 7960,
      "usquet": 7961,
      "istics": 7962,
      "cacions": 7963,
      "coordin": 7964,
      "tanpauc": 7965,
      "maish": 7966,
      "convencions": 7967,
      "confron": 7968,
      "seish": 7969,
      "silen": 7970,
      "éra": 7971,
      "écri": 7972,
      "éron": 7973,
      "alt": 7974,
      "virat": 7975,
      "tures": 7976,
      "tudes": 7977,
      "gai": 7978,
      "meta": 7979,
      "resèr": 7980,
      "roi": 7981,
      "ausèth": 7982,
      "sovenir": 7983,
      "poi": 7984,
      "pou": 7985,
      "pele": 7986,
      "Labadie": 7987,
      "papaga": 7988,
      "mitic": 7989,
      "mirau": 7990,
      "proble": 7991,
      "mane": 7992,
      "maneta": 7993,
      "cher": 7994,
      "mentària": 7995,
      "teria": 7996,
      "precon": 7997,
      "prepara": 7998,
      "diss": 7999,
      "dispausar": 8000,
      "aira": 8001,
      "aimat": 8002,
      "Esòp": 8003,
      "Estivada": 8004,
      "comèr": 8005,
      "ishi": 8006,
      "linas": 8007,
      "molin": 8008,
      "tarri": 8009,
      "izat": 8010,
      "izacions": 8011,
      "venguèt": 8012,
      "veniá": 8013,
      "vó": 8014,
      "docien": 8015,
      "jamin": 8016,
      "abora": 8017,
      "benda": 8018,
      "bendas": 8019,
      "mason": 8020,
      "massar": 8021,
      "expri": 8022,
      "escultura": 8023,
      "trent": 8024,
      "celle": 8025,
      "tré": 8026,
      "tòme": 8027,
      "lèm": 8028,
      "Combi": 8029,
      "totparièr": 8030,
      "boi": 8031,
      "botat": 8032,
      "suple": 8033,
      "còn": 8034,
      "carn": 8035,
      "Recipe": 8036,
      "creire": 8037,
      "tenent": 8038,
      "tench": 8039,
      "rèsta": 8040,
      "chaça": 8041,
      "luts": 8042,
      "Tota": 8043,
      "missa": 8044,
      "1960": 8045,
      "Demo": 8046,
      "daurada": 8047,
      "Lefeu": 8048,
      "Serà": 8049,
      "barri": 8050,
      "barrat": 8051,
      "privi": 8052,
      "lingüistas": 8053,
      "jol": 8054,
      "joves": 8055,
      "caps": 8056,
      "daris": 8057,
      "dintre": 8058,
      "garbu": 8059,
      "core": 8060,
      "balhan": 8061,
      "braç": 8062,
      "seng": 8063,
      "senhor": 8064,
      "got": 8065,
      "gonha": 8066,
      "rendètz": 8067,
      "butas": 8068,
      "Rodés": 8069,
      "clavar": 8070,
      "Borde": 8071,
      "estoi": 8072,
      "sauvatge": 8073,
      "Diversitat": 8074,
      "Director": 8075,
      "Passe": 8076,
      "Med": 8077,
      "junta": 8078,
      "Tracta": 8079,
      "veses": 8080,
      "lòpa": 8081,
      "tèrmes": 8082,
      "Nom": 8083,
      "Nombre": 8084,
      "vitalitat": 8085,
      "veill": 8086,
      "terrible": 8087,
      "CDMDT": 8088,
      "setembre": 8089,
      "ròsa": 8090,
      "averé": 8091,
      "Landes": 8092,
      "Sound": 8093,
      "Chavar": 8094,
      "Charantas": 8095,
      "ajudas": 8096,
      "chièr": 8097,
      "chifras": 8098,
      "estudiar": 8099,
      "borg": 8100,
      "borri": 8101,
      "Gué": 8102,
      "morfo": 8103,
      "familhas": 8104,
      "Luis": 8105,
      "Votz": 8106,
      "central": 8107,
      "pòrc": 8108,
      "consacra": 8109,
      "Cantem": 8110,
      "inscriu": 8111,
      "parlarà": 8112,
      "tectura": 8113,
      "tecni": 8114,
      "vertadè": 8115,
      "recuelhs": 8116,
      "ACP": 8117,
      "aprene": 8118,
      "Patrimoine": 8119,
      "enregistrar": 8120,
      "poders": 8121,
      "disponibla": 8122,
      "disponiblas": 8123,
      "animators": 8124,
      "1996": 8125,
      "Baron": 8126,
      "Barbe": 8127,
      "gredi": 8128,
      "pedagogia": 8129,
      "acompanhadas": 8130,
      "bilingue": 8131,
      "produsir": 8132,
      "mantuna": 8133,
      "Benedi": 8134,
      "engatjat": 8135,
      "indicas": 8136,
      "solidari": 8137,
      "europèus": 8138,
      "adol": 8139,
      "desir": 8140,
      "dralha": 8141,
      "images": 8142,
      "dròlla": 8143,
      "cèrcan": 8144,
      "cèrcas": 8145,
      "Istòrias": 8146,
      "quaranta": 8147,
      "assegurada": 8148,
      "avom": 8149,
      "aulhèr": 8150,
      "adulte": 8151,
      "movements": 8152,
      "pedagogics": 8153,
      "creaturas": 8154,
      "locucions": 8155,
      "endret": 8156,
      "Arrico": 8157,
      "ortografia": 8158,
      "integrat": 8159,
      "aficha": 8160,
      "afichatge": 8161,
      "libertat": 8162,
      "trajectòrias": 8163,
      "Romans": 8164,
      "rasís": 8165,
      "territoriau": 8166,
      "dóu": 8167,
      "pòstes": 8168,
      "setmanèr": 8169,
      "tomba": 8170,
      "prètzhèit": 8171,
      "dialò": 8172,
      "Velhada": 8173,
      "Richard": 8174,
      "meteissa": 8175,
      "secret": 8176,
      "secretari": 8177,
      "ajustar": 8178,
      "solucion": 8179,
      "problèmas": 8180,
      "Léger": 8181,
      "Gilles": 8182,
      "obrirà": 8183,
      "Animation": 8184,
      "nervi": 8185,
      "superior": 8186,
      "Balaguèra": 8187,
      "disciplina": 8188,
      "Voltz": 8189,
      "Orazio": 8190,
      "Thomas": 8191,
      "reclam": 8192,
      "clavarà": 8193,
      "gigants": 8194,
      "confirmats": 8195,
      "cristau": 8196,
      "municipau": 8197,
      "exercici": 8198,
      "blòg": 8199,
      "ensenhants": 8200,
      "electrica": 8201,
      "decoratiu": 8202,
      "alfabe": 8203,
      "SPM": 8204,
      "Magret": 8205,
      "DNSPM": 8206,
      "dictada": 8207,
      "meravilhós": 8208,
      "Rescontres": 8209,
      "Emmanuel": 8210,
      "Valéry": 8211,
      "Parpalhon": 8212,
      "Lesfargues": 8213,
      "magaz": 8214,
      "Continu": 8215,
      "Michaël": 8216,
      "Avairon": 8217,
      "Deixonne": 8218,
      "Tags": 8219,
      "Zinzon": 8220,
      "Lefeuvre": 8221,
      ".,": 8222,
      ".),": 8223,
      ":.": 8224,
      "Alèx": 8225,
      "Bur": 8226,
      "Bleu": 8227,
      "Cò": 8228,
      "Cate": 8229,
      "Din": 8230,
      "Dil": 8231,
      "Dinc": 8232,
      "Fara": 8233,
      "Fabri": 8234,
      "Gri": 8235,
      "Gara": 8236,
      "Glèisa": 8237,
      "Hom": 8238,
      "Hol": 8239,
      "Ish": 8240,
      "Italia": 8241,
      "Lat": 8242,
      "Lesp": 8243,
      "MS": 8244,
      "Mis": 8245,
      "Mini": 8246,
      "Nan": 8247,
      "Nèu": 8248,
      "Star": 8249,
      "Show": 8250,
      "Tu": 8251,
      "Tari": 8252,
      "apas": 8253,
      "aparten": 8254,
      "avalo": 8255,
      "amainat": 8256,
      "bueus": 8257,
      "dò": 8258,
      "dding": 8259,
      "emer": 8260,
      "emissions": 8261,
      "flo": 8262,
      "gris": 8263,
      "glò": 8264,
      "glaça": 8265,
      "hida": 8266,
      "jal": 8267,
      "mori": 8268,
      "muda": 8269,
      "naus": 8270,
      "pé": 8271,
      "pèu": 8272,
      "saris": 8273,
      "tèra": 8274,
      "tenta": 8275,
      "xtes": 8276,
      "xion": 8277,
      "yrie": 8278,
      "ypiques": 8279,
      "zacion": 8280,
      "dew": 8281,
      "deno": 8282,
      "enem": 8283,
      "lap": 8284,
      "rare": 8285,
      "rador": 8286,
      "quant": 8287,
      "quista": 8288,
      "esfòr": 8289,
      "ciLab": 8290,
      "arradi": 8291,
      "ority": 8292,
      "repa": 8293,
      "retr": 8294,
      "tivar": 8295,
      "ló": 8296,
      "rius": 8297,
      "intè": 8298,
      "daissa": 8299,
      "uste": 8300,
      "caire": 8301,
      "livre": 8302,
      "teishen": 8303,
      "coia": 8304,
      "coedicion": 8305,
      "satis": 8306,
      "salari": 8307,
      "macion": 8308,
      "legis": 8309,
      "lejadas": 8310,
      "pertin": 8311,
      "perseguir": 8312,
      "conéisser": 8313,
      "setau": 8314,
      "ville": 8315,
      "vietz": 8316,
      "trà": 8317,
      "gués": 8318,
      "guaire": 8319,
      "resson": 8320,
      "resumit": 8321,
      "sonori": 8322,
      "parle": 8323,
      "parlat": 8324,
      "roja": 8325,
      "polas": 8326,
      "Loflòc": 8327,
      "vadas": 8328,
      "pagan": 8329,
      "padding": 8330,
      "despar": 8331,
      "desèrt": 8332,
      "desfís": 8333,
      "chon": 8334,
      "chats": 8335,
      "Òussa": 8336,
      "accent": 8337,
      "dable": 8338,
      "dure": 8339,
      "Quelas": 8340,
      "airitz": 8341,
      "veden": 8342,
      "mosa": 8343,
      "mousin": 8344,
      "abla": 8345,
      "mondia": 8346,
      "Auto": 8347,
      "minacion": 8348,
      "minges": 8349,
      "lène": 8350,
      "obrir": 8351,
      "marinas": 8352,
      "Cavali": 8353,
      "Aronde": 8354,
      "mate": 8355,
      "colband": 8356,
      "Recèpta": 8357,
      "pifre": 8358,
      "pilòt": 8359,
      "pionèr": 8360,
      "Inaugu": 8361,
      "creator": 8362,
      "lut": 8363,
      "Topony": 8364,
      "1914": 8365,
      "1901": 8366,
      "valer": 8367,
      "loron": 8368,
      "intercomuna": 8369,
      "seguirà": 8370,
      "segueishen": 8371,
      "Antiquitat": 8372,
      "Leku": 8373,
      "bret": 8374,
      "polícia": 8375,
      "Paula": 8376,
      "Paulina": 8377,
      "quauque": 8378,
      "fariá": 8379,
      "primtemps": 8380,
      "priority": 8381,
      "tines": 8382,
      "jovent": 8383,
      "Bec": 8384,
      "corregi": 8385,
      "Martel": 8386,
      "braves": 8387,
      "sentit": 8388,
      "Assi": 8389,
      "Bibonne": 8390,
      "tals": 8391,
      "narra": 8392,
      "noshow": 8393,
      "risme": 8394,
      "Vièla": 8395,
      "Joana": 8396,
      "Romiu": 8397,
      "illa": 8398,
      "Carcin": 8399,
      "gista": 8400,
      "port": 8401,
      "CION": 8402,
      "emble": 8403,
      "eleccion": 8404,
      "elementari": 8405,
      "transpòrts": 8406,
      "tienerà": 8407,
      "Media": 8408,
      "junt": 8409,
      "encontr": 8410,
      "lòra": 8411,
      "apèr": 8412,
      "miadas": 8413,
      "Produc": 8414,
      "tribalhan": 8415,
      "Lande": 8416,
      "enquista": 8417,
      "cantada": 8418,
      "ajudat": 8419,
      "organizacions": 8420,
      "diferent": 8421,
      "quauqua": 8422,
      "foguèron": 8423,
      "Pepin": 8424,
      "Pati": 8425,
      "permetrà": 8426,
      "bordièr": 8427,
      "Guit": 8428,
      "bòl": 8429,
      "puslèu": 8430,
      "Verny": 8431,
      "arrevirats": 8432,
      "mèir": 8433,
      "visibilitat": 8434,
      "pròpia": 8435,
      "dísers": 8436,
      "parladas": 8437,
      "Albret": 8438,
      "vertadièr": 8439,
      "ENT": 8440,
      "emplegar": 8441,
      "tornèt": 8442,
      "Capvath": 8443,
      "justi": 8444,
      "Angèla": 8445,
      "Atypiques": 8446,
      "ensembles": 8447,
      "ards": 8448,
      "Corric": 8449,
      "Tivoli": 8450,
      "enregistrats": 8451,
      "logie": 8452,
      "volut": 8453,
      "1998": 8454,
      "sciéncia": 8455,
      "Sauva": 8456,
      "espacis": 8457,
      "Jurada": 8458,
      "eleccions": 8459,
      "agradiu": 8460,
      "téra": 8461,
      "simpa": 8462,
      "Euroregion": 8463,
      "comunautari": 8464,
      "desirar": 8465,
      "debanaràn": 8466,
      "1981": 8467,
      "aisit": 8468,
      "cèls": 8469,
      "huecs": 8470,
      "Alícia": 8471,
      "demons": 8472,
      "Novem": 8473,
      "cooking": 8474,
      "Trespomas": 8475,
      "webmèstra": 8476,
      "organismes": 8477,
      "ineditas": 8478,
      "percussion": 8479,
      "pensadas": 8480,
      "necessitat": 8481,
      "convidat": 8482,
      "Ròcha": 8483,
      "ANS": 8484,
      "Format": 8485,
      "Françoise": 8486,
      "deishar": 8487,
      "deishat": 8488,
      "pagination": 8489,
      "particulara": 8490,
      "capitala": 8491,
      "capitani": 8492,
      "amusar": 8493,
      "tombar": 8494,
      "exemplars": 8495,
      "Sortida": 8496,
      "Sorrom": 8497,
      "electronic": 8498,
      "Veses": 8499,
      "descriu": 8500,
      "Sondaquí": 8501,
      "defensa": 8502,
      "leugièra": 8503,
      "Chapduèlh": 8504,
      "cursus": 8505,
      "Transmetem": 8506,
      "micro": 8507,
      "violon": 8508,
      "vàder": 8509,
      "versalitat": 8510,
      "languedocien": 8511,
      "numerizacion": 8512,
      "Bohaires": 8513,
      "considerat": 8514,
      "deveré": 8515,
      "esconut": 8516,
      "acceptar": 8517,
      "Tableau": 8518,
      "metratges": 8519,
      "Talhèrs": 8520,
      "arguments": 8521,
      "papièrs": 8522,
      "Raibaud": 8523,
      "Moussu": 8524,
      "Isabelle": 8525,
      "alterna": 8526,
      "Massilia": 8527,
      "centenats": 8528,
      "individuau": 8529,
      "Garròs": 8530,
      "professionala": 8531,
      "Dalharí": 8532,
      "mòstra": 8533,
      "estosse": 8534,
      "comencèt": 8535,
      "amators": 8536,
      "Henry": 8537,
      "AIDO": 8538,
      "exactament": 8539,
      "grèva": 8540,
      "horats": 8541,
      "rowband": 8542,
      "bottom": 8543,
      "https": 8544,
      "Espinasse": 8545,
      "merciaments": 8546,
      "ubadours": 8547,
      "Angell": 8548,
      "Aperitiu": 8549,
      "Djé": 8550,
      "silenci": 8551,
      "comèrci": 8552,
      "trentenat": 8553,
      "garbura": 8554,
      "Chavaroche": 8555,
      "Zinzonaires": 8556,
      "Stardew": 8557,
      "Lekuona": 8558,
      "cookingRecipe": 8559,
      ".).": 8560,
      "61": 8561,
      "71": 8562,
      "74": 8563,
      "88": 8564,
      "95": 8565,
      "98": 8566,
      "Ap": 8567,
      "Alan": 8568,
      "Bòr": 8569,
      "Bòria": 8570,
      "CH": 8571,
      "Clas": 8572,
      "Carr": 8573,
      "Che": 8574,
      "Clà": 8575,
      "DU": 8576,
      "Drac": 8577,
      "Eva": 8578,
      "Ecomusèu": 8579,
      "Gru": 8580,
      "Hauta": 8581,
      "Hromatge": 8582,
      "Hubert": 8583,
      "Í": 8584,
      "Jum": 8585,
      "Laus": 8586,
      "Met": 8587,
      "Mesc": 8588,
      "Nari": 8589,
      "Pé": 8590,
      "Pic": 8591,
      "Pad": 8592,
      "Pensas": 8593,
      "Rencon": 8594,
      "System": 8595,
      "Tur": 8596,
      "Ubaud": 8597,
      "afran": 8598,
      "agen": 8599,
      "agòr": 8600,
      "bèt": 8601,
      "cura": 8602,
      "dubèrta": 8603,
      "drub": 8604,
      "eg": 8605,
      "fec": 8606,
      "hus": 8607,
      "ici": 8608,
      "iana": 8609,
      "janta": 8610,
      "ky": 8611,
      "llec": 8612,
      "mics": 8613,
      "mòrta": 8614,
      "nd": 8615,
      "noc": 8616,
      "nuèit": 8617,
      "oo": 8618,
      "plei": 8619,
      "run": 8620,
      "sòrta": 8621,
      "vé": 8622,
      "vator": 8623,
      "ye": 8624,
      "zé": 8625,
      "̈s": 8626,
      "ό": 8627,
      "deco": 8628,
      "delibe": 8629,
      "devin": 8630,
      "departe": 8631,
      "enda": 8632,
      "enjòc": 8633,
      "tata": 8634,
      "tarà": 8635,
      "label": 8636,
      "quad": 8637,
      "èmas": 8638,
      "espar": 8639,
      "cina": 8640,
      "assu": 8641,
      "arser": 8642,
      "arbri": 8643,
      "anna": 8644,
      "aubre": 8645,
      "aumentar": 8646,
      "rén": 8647,
      "remesa": 8648,
      "rememb": 8649,
      "òba": 8650,
      "òris": 8651,
      "diment": 8652,
      "diva": 8653,
      "tiradas": 8654,
      "logar": 8655,
      "locitat": 8656,
      "rigor": 8657,
      "intro": 8658,
      "ingredi": 8659,
      "cami": 8660,
      "cabana": 8661,
      "lib": 8662,
      "liga": 8663,
      "lís": 8664,
      "ligada": 8665,
      "lieux": 8666,
      "teurs": 8667,
      "copar": 8668,
      "coeur": 8669,
      "saca": 8670,
      "samp": 8671,
      "sage": 8672,
      "lejuts": 8673,
      "conval": 8674,
      "sepa": 8675,
      "quida": 8676,
      "sie": 8677,
      "sius": 8678,
      "éli": 8679,
      "alu": 8680,
      "vitats": 8681,
      "vivas": 8682,
      "tuaus": 8683,
      "Qual": 8684,
      "ossa": 8685,
      "gahar": 8686,
      "gaires": 8687,
      "gavida": 8688,
      "guè": 8689,
      "guel": 8690,
      "meish": 8691,
      "resis": 8692,
      "èste": 8693,
      "èstes": 8694,
      "solament": 8695,
      "Loub": 8696,
      "sabem": 8697,
      "vala": 8698,
      "gias": 8699,
      "Laban": 8700,
      "pagèra": 8701,
      "mantua": 8702,
      "despart": 8703,
      "desconeguts": 8704,
      "chin": 8705,
      "chet": 8706,
      "Òmi": 8707,
      "lançat": 8708,
      "menes": 8709,
      "actiu": 8710,
      "preten": 8711,
      "prefigu": 8712,
      "dispausa": 8713,
      "discors": 8714,
      "dissèt": 8715,
      "airac": 8716,
      "vem": 8717,
      "suspresas": 8718,
      "grais": 8719,
      "grafe": 8720,
      "mesas": 8721,
      "preson": 8722,
      "mustras": 8723,
      "vendres": 8724,
      "volar": 8725,
      "voud": 8726,
      "dol": 8727,
      "dora": 8728,
      "jam": 8729,
      "javan": 8730,
      "monu": 8731,
      "nié": 8732,
      "urden": 8733,
      "vèl": 8734,
      "mairala": 8735,
      "compara": 8736,
      "Auta": 8737,
      "quesa": 8738,
      "énor": 8739,
      "éné": 8740,
      "énder": 8741,
      "filo": 8742,
      "minu": 8743,
      "Coder": 8744,
      "Comission": 8745,
      "bota": 8746,
      "visda": 8747,
      "super": 8748,
      "fachilhièr": 8749,
      "Arth": 8750,
      "Arudi": 8751,
      "gasconne": 8752,
      "cològue": 8753,
      "Reedicion": 8754,
      "partits": 8755,
      "particions": 8756,
      "pòbles": 8757,
      "triga": 8758,
      "recer": 8759,
      "Totes": 8760,
      "Total": 8761,
      "Toponi": 8762,
      "misèria": 8763,
      "mistèri": 8764,
      "espeli": 8765,
      "bastiment": 8766,
      "polit": 8767,
      "barba": 8768,
      "prin": 8769,
      "amna": 8770,
      "jou": 8771,
      "jogat": 8772,
      "avian": 8773,
      "Marquesa": 8774,
      "plaqueta": 8775,
      "hèish": 8776,
      "Vidas": 8777,
      "utile": 8778,
      "utiles": 8779,
      "empera": 8780,
      "empuish": 8781,
      "rencontra": 8782,
      "bús": 8783,
      "Roi": 8784,
      "Romain": 8785,
      "Rodín": 8786,
      "clara": 8787,
      "escapar": 8788,
      "Liber": 8789,
      "sosténer": 8790,
      "24au": 8791,
      "Dias": 8792,
      "banda": 8793,
      "Pass": 8794,
      "arriban": 8795,
      "Memè": 8796,
      "vesinas": 8797,
      "lòta": 8798,
      "Poes": 8799,
      "Partit": 8800,
      "Parlem": 8801,
      "Nou": 8802,
      "lexica": 8803,
      "collectatge": 8804,
      "cesa": 8805,
      "Miguel": 8806,
      "còrda": 8807,
      "còrse": 8808,
      "especifici": 8809,
      "especifics": 8810,
      "vèrsa": 8811,
      "trobada": 8812,
      "trobarà": 8813,
      "Champ": 8814,
      "organizarà": 8815,
      "Compren": 8816,
      "Comminges": 8817,
      "fogier": 8818,
      "campionat": 8819,
      "academica": 8820,
      "academias": 8821,
      "Garonne": 8822,
      "estudianta": 8823,
      "borrèia": 8824,
      "ènas": 8825,
      "respondre": 8826,
      "bòt": 8827,
      "materiaus": 8828,
      "agnie": 8829,
      "vautres": 8830,
      "arrevirar": 8831,
      "actualitats": 8832,
      "collègas": 8833,
      "mèdia": 8834,
      "chasque": 8835,
      "Durand": 8836,
      "pròpi": 8837,
      "contracte": 8838,
      "Desempuish": 8839,
      "utilizats": 8840,
      "albums": 8841,
      "temporada": 8842,
      "sign": 8843,
      "signe": 8844,
      "darrèrs": 8845,
      "Musical": 8846,
      "passava": 8847,
      "difusadas": 8848,
      "Niça": 8849,
      "nòstres": 8850,
      "contemporanèus": 8851,
      "bibliografia": 8852,
      "volumes": 8853,
      "1993": 8854,
      "1994": 8855,
      "1999": 8856,
      "picar": 8857,
      "Aush": 8858,
      "iniciacions": 8859,
      "legit": 8860,
      "Saurat": 8861,
      "Júlia": 8862,
      "flabutas": 8863,
      "Compete": 8864,
      "Charri": 8865,
      "Valley": 8866,
      "Valentin": 8867,
      "Tarbes": 8868,
      "Danís": 8869,
      "principa": 8870,
      "Terri": 8871,
      "Termin": 8872,
      "frut": 8873,
      "omics": 8874,
      "Princi": 8875,
      "Radio": 8876,
      "toponims": 8877,
      "classics": 8878,
      "Chanteurs": 8879,
      "quasèr": 8880,
      "perpausan": 8881,
      "Aliénor": 8882,
      "aulhèrs": 8883,
      "acompanhan": 8884,
      "dessenhadas": 8885,
      "representadas": 8886,
      "coneishut": 8887,
      "estructuracion": 8888,
      "composicion": 8889,
      "destinada": 8890,
      "pèrdre": 8891,
      "explics": 8892,
      "Fénié": 8893,
      "Quitament": 8894,
      "destinats": 8895,
      "Frequen": 8896,
      "Faburden": 8897,
      "probable": 8898,
      "Brigada": 8899,
      "aperat": 8900,
      "desvelh": 8901,
      "brun": 8902,
      "fabrica": 8903,
      "pregond": 8904,
      "97828": 8905,
      "aragonesa": 8906,
      "especializats": 8907,
      "analisis": 8908,
      "Adam": 8909,
      "aurelhas": 8910,
      "terminologia": 8911,
      "chamnhar": 8912,
      "vivaroalpenc": 8913,
      "Seuvalada": 8914,
      "extraordinari": 8915,
      "Abans": 8916,
      "ausís": 8917,
      "protegir": 8918,
      "existir": 8919,
      "littéra": 8920,
      "conjugador": 8921,
      "dessenhs": 8922,
      "Ferré": 8923,
      "efièch": 8924,
      "efièit": 8925,
      "manièra": 8926,
      "espèran": 8927,
      "familiau": 8928,
      "carlamusas": 8929,
      "plurilingüisme": 8930,
      "etimo": 8931,
      "eficacitat": 8932,
      "deverà": 8933,
      "estranhs": 8934,
      "Utiliza": 8935,
      "navigacion": 8936,
      "prioritat": 8937,
      "Black": 8938,
      "clinica": 8939,
      "reüni": 8940,
      "discussion": 8941,
      "educativa": 8942,
      "Vice": 8943,
      "budge": 8944,
      "estandard": 8945,
      "modul": 8946,
      "modules": 8947,
      "agís": 8948,
      "Fraj": 8949,
      "ahortir": 8950,
      "comission": 8951,
      "comissions": 8952,
      "fortuna": 8953,
      "odore": 8954,
      "devèva": 8955,
      "perfièch": 8956,
      "Bourry": 8957,
      "estrategia": 8958,
      "concebut": 8959,
      "Danses": 8960,
      "Eissaie": 8961,
      "avosse": 8962,
      "Urt": 8963,
      "egalitat": 8964,
      "Marçós": 8965,
      "Prumèr": 8966,
      "Tostemps": 8967,
      "sonòres": 8968,
      "Èste": 8969,
      "desvelopament": 8970,
      "chantada": 8971,
      "Lectura": 8972,
      "quarantenat": 8973,
      "Pirèna": 8974,
      "bizarri": 8975,
      "legumes": 8976,
      "metodo": 8977,
      "Prosei": 8978,
      "Samatan": 8979,
      "Swiftkey": 8980,
      "America": 8981,
      "Rabairac": 8982,
      "papagai": 8983,
      "preconizacions": 8984,
      "Tractament": 8985,
      "Guépia": 8986,
      "vertadèrament": 8987,
      "Diluns": 8988,
      "sonoritats": 8989,
      "Clàudia": 8990,
      "Jumèu": 8991,
      "convalescéncia": 8992,
      "Labandés": 8993,
      "Codersac": 8994,
      "'...": 8995,
      "1pt": 8996,
      "3au": 8997,
      "52": 8998,
      "69": 8999,
      "AQU": 9000,
      "Bro": 9001,
      "Bara": 9002,
      "Baura": 9003,
      "Brot": 9004,
      "Bòta": 9005,
      "Cir": 9006,
      "Cana": 9007,
      "CES": 9008,
      "CLA": 9009,
      "Culh": 9010,
      "CRE": 9011,
      "Dos": 9012,
      "Dob": 9013,
      "Dubèrt": 9014,
      "EL": 9015,
      "Ed": 9016,
      "Ev": 9017,
      "Festiv": 9018,
      "GAR": 9019,
      "Ki": 9020,
      "Lari": 9021,
      "Mit": 9022,
      "Oèst": 9023,
      "PI": 9024,
      "Pamb": 9025,
      "Pit": 9026,
      "Para": 9027,
      "Pòt": 9028,
      "Pòrtas": 9029,
      "PciLab": 9030,
      "Rin": 9031,
      "Rho": 9032,
      "RES": 9033,
      "SA": 9034,
      "SI": 9035,
      "Sens": 9036,
      "Sans": 9037,
      "Senh": 9038,
      "Tant": 9039,
      "Vala": 9040,
      "apode": 9041,
      "ajas": 9042,
      "boc": 9043,
      "blat": 9044,
      "bàs": 9045,
      "borsas": 9046,
      "bulletin": 9047,
      "cun": 9048,
      "ccions": 9049,
      "cros": 9050,
      "ein": 9051,
      "edas": 9052,
      "gmail": 9053,
      "hau": 9054,
      "hre": 9055,
      "ite": 9056,
      "ke": 9057,
      "mme": 9058,
      "nueits": 9059,
      "ovan": 9060,
      "otís": 9061,
      "piz": 9062,
      "péri": 9063,
      "sans": 9064,
      "sins": 9065,
      "uga": 9066,
      "urosament": 9067,
      "vaus": 9068,
      "vèsta": 9069,
      "véncer": 9070,
      "xte": 9071,
      "ynaud": 9072,
      "zac": 9073,
      "̀vam": 9074,
      "̈n": 9075,
      "deta": 9076,
      "deri": 9077,
      "devi": 9078,
      "demai": 9079,
      "detec": 9080,
      "degalh": 9081,
      "ennes": 9082,
      "enrasi": 9083,
      "taub": 9084,
      "lain": 9085,
      "lacions": 9086,
      "quèr": 9087,
      "èta": 9088,
      "èlas": 9089,
      "esbolhar": 9090,
      "cipacion": 9091,
      "arca": 9092,
      "anti": 9093,
      "anec": 9094,
      "ausada": 9095,
      "aulhas": 9096,
      "reis": 9097,
      "reten": 9098,
      "redus": 9099,
      "revistas": 9100,
      "òbran": 9101,
      "dilh": 9102,
      "diable": 9103,
      "loba": 9104,
      "atu": 9105,
      "atona": 9106,
      "riu": 9107,
      "rilhac": 9108,
      "indus": 9109,
      "inves": 9110,
      "dalh": 9111,
      "iso": 9112,
      "isla": 9113,
      "cais": 9114,
      "catas": 9115,
      "caló": 9116,
      "teu": 9117,
      "teor": 9118,
      "coordinacion": 9119,
      "majo": 9120,
      "machina": 9121,
      "letas": 9122,
      "perfor": 9123,
      "confor": 9124,
      "pros": 9125,
      "tolos": 9126,
      "hall": 9127,
      "quite": 9128,
      "sivas": 9129,
      "vian": 9130,
      "nava": 9131,
      "meas": 9132,
      "mpeta": 9133,
      "iam": 9134,
      "resisténcia": 9135,
      "pastorau": 9136,
      "solo": 9137,
      "pomp": 9138,
      "poten": 9139,
      "pousis": 9140,
      "pela": 9141,
      "Lobi": 9142,
      "Lobèra": 9143,
      "sable": 9144,
      "sabiá": 9145,
      "uacion": 9146,
      "gita": 9147,
      "giosa": 9148,
      "mièja": 9149,
      "mitologia": 9150,
      "geografica": 9151,
      "manten": 9152,
      "descentra": 9153,
      "òrre": 9154,
      "landes": 9155,
      "thòs": 9156,
      "accents": 9157,
      "ganha": 9158,
      "dudas": 9159,
      "durada": 9160,
      "Quel": 9161,
      "preïs": 9162,
      "aigas": 9163,
      "aigar": 9164,
      "vedo": 9165,
      "veguèt": 9166,
      "Estèla": 9167,
      "Escòlas": 9168,
      "Escura": 9169,
      "nocions": 9170,
      "dotz": 9171,
      "dell": 9172,
      "balharà": 9173,
      "nega": 9174,
      "netines": 9175,
      "massa": 9176,
      "exa": 9177,
      "exaus": 9178,
      "exig": 9179,
      "exclus": 9180,
      "dèla": 9181,
      "compensa": 9182,
      "comptinas": 9183,
      "Aumenta": 9184,
      "Aurilhac": 9185,
      "tàncias": 9186,
      "culturals": 9187,
      "fie": 9188,
      "filha": 9189,
      "Aquitan": 9190,
      "badia": 9191,
      "minjat": 9192,
      "dence": 9193,
      "Comenge": 9194,
      "publicada": 9195,
      "seren": 9196,
      "onaa": 9197,
      "bola": 9198,
      "bote": 9199,
      "tresena": 9200,
      "obèrta": 9201,
      "drecha": 9202,
      "supòrt": 9203,
      "supòrts": 9204,
      "fará": 9205,
      "marmusa": 9206,
      "Cadell": 9207,
      "carrò": 9208,
      "Argen": 9209,
      "tempera": 9210,
      "Enchantada": 9211,
      "colon": 9212,
      "colla": 9213,
      "estatua": 9214,
      "trompeta": 9215,
      "lutas": 9216,
      "dialogar": 9217,
      "tritz": 9218,
      "lingües": 9219,
      "recensa": 9220,
      "recuèlh": 9221,
      "missari": 9222,
      "fina": 9223,
      "finament": 9224,
      "1978": 9225,
      "lard": 9226,
      "vallé": 9227,
      "esperat": 9228,
      "interregionau": 9229,
      "intercompreneson": 9230,
      "tista": 9231,
      "Ancians": 9232,
      "crisi": 9233,
      "Journ": 9234,
      "poderós": 9235,
      "pausada": 9236,
      "Ornon": 9237,
      "Francesa": 9238,
      "barras": 9239,
      "jours": 9240,
      "còpsec": 9241,
      "Aquelas": 9242,
      "Belina": 9243,
      "ficat": 9244,
      "associativa": 9245,
      "cortas": 9246,
      "corrièr": 9247,
      "balhant": 9248,
      "cauquilha": 9249,
      "Vira": 9250,
      "10au": 9251,
      "Monod": 9252,
      "comuns": 9253,
      "hasè": 9254,
      "mossur": 9255,
      "clavèrs": 9256,
      "clarine": 9257,
      "Carpousis": 9258,
      "elli": 9259,
      "Litera": 9260,
      "coneis": 9261,
      "conegudas": 9262,
      "quantas": 9263,
      "batut": 9264,
      "Divèrs": 9265,
      "maines": 9266,
      "entervistas": 9267,
      "vòt": 9268,
      "transcripcion": 9269,
      "adarron": 9270,
      "arretrobar": 9271,
      "arrefus": 9272,
      "Tradeth": 9273,
      "cinquanta": 9274,
      "orienta": 9275,
      "personalitats": 9276,
      "Popu": 9277,
      "Parla": 9278,
      "Noël": 9279,
      "viengó": 9280,
      "faiçons": 9281,
      "hilhs": 9282,
      "collectadas": 9283,
      "federacion": 9284,
      "societats": 9285,
      "Caste": 9286,
      "positiu": 9287,
      "fòl": 9288,
      "Chamn": 9289,
      "estivas": 9290,
      "espia": 9291,
      "23au": 9292,
      "Pepon": 9293,
      "Pecot": 9294,
      "Peteta": 9295,
      "Parau": 9296,
      "fanfa": 9297,
      "acabar": 9298,
      "autoritat": 9299,
      "bòta": 9300,
      "agent": 9301,
      "rèla": 9302,
      "Ressor": 9303,
      "vaud": 9304,
      "21au": 9305,
      "0001pt": 9306,
[...]
